{
  "version": "1.0",
  "truncation": null,
  "padding": null,
  "added_tokens": [
    {
      "id": 0,
      "content": "<unk>",
      "single_word": false,
      "lstrip": false,
      "rstrip": false,
      "normalized": false,
      "special": true
    },
    {
      "id": 1,
      "content": "<s>",
      "single_word": false,
      "lstrip": false,
      "rstrip": false,
      "normalized": false,
      "special": true
    },
    {
      "id": 2,
      "content": "</s>",
      "single_word": false,
      "lstrip": false,
      "rstrip": false,
      "normalized": false,
      "special": true
    },
    {
      "id": 3,
      "content": "<pad>",
      "single_word": false,
      "lstrip": false,
      "rstrip": false,
      "normalized": false,
      "special": true
    },
    {
      "id": 4,
      "content": "<sep>",
      "single_word": false,
      "lstrip": false,
      "rstrip": false,
      "normalized": false,
      "special": true
    },
    {
      "id": 5,
      "content": "<cls>",
      "single_word": false,
      "lstrip": false,
      "rstrip": false,
      "normalized": false,
      "special": true
    }
  ],
  "normalizer": null,
  "pre_tokenizer": {
    "type": "Sequence",
    "pretokenizers": [
      {
        "type": "Split",
        "pattern": {
          "Regex": " ?\\p{Han}| ?\\p{L}+| ?\\p{N}+| ?[^\\s\\p{L}\\p{N}\\p{Han}]+|\\s+(?!\\S)|\\s+"
        },
        "behavior": "Isolated",
        "invert": false
      },
      {
        "type": "ByteLevel",
        "add_prefix_space": false,
        "trim_offsets": true,
        "use_regex": false
      }
    ]
  },
  "post_processor": {
    "type": "ByteLevel",
    "add_prefix_space": true,
    "trim_offsets": false,
    "use_regex": true
  },
  "decoder": {
    "type": "ByteLevel",
    "add_prefix_space": true,
    "trim_offsets": true,
    "use_regex": true
  },
  "model": {
    "type": "BPE",
    "dropout": null,
    "unk_token": null,
    "continuing_subword_prefix": null,
    "end_of_word_suffix": null,
    "fuse_unk": false,
    "byte_fallback": false,
    "vocab": {
      "<unk>": 0,
      "<s>": 1,
      "</s>": 2,
      "<pad>": 3,
      "<sep>": 4,
      "<cls>": 5,
      "!": 6,
      "\"": 7,
      "#": 8,
      "$": 9,
      "%": 10,
      "&": 11,
      "'": 12,
      "(": 13,
      ")": 14,
      "*": 15,
      "+": 16,
      ",": 17,
      "-": 18,
      ".": 19,
      "/": 20,
      "0": 21,
      "1": 22,
      "2": 23,
      "3": 24,
      "4": 25,
      "5": 26,
      "6": 27,
      "7": 28,
      "8": 29,
      "9": 30,
      ":": 31,
      ";": 32,
      "<": 33,
      "=": 34,
      ">": 35,
      "?": 36,
      "@": 37,
      "A": 38,
      "B": 39,
      "C": 40,
      "D": 41,
      "E": 42,
      "F": 43,
      "G": 44,
      "H": 45,
      "I": 46,
      "J": 47,
      "K": 48,
      "L": 49,
      "M": 50,
      "N": 51,
      "O": 52,
      "P": 53,
      "Q": 54,
      "R": 55,
      "S": 56,
      "T": 57,
      "U": 58,
      "V": 59,
      "W": 60,
      "X": 61,
      "Y": 62,
      "Z": 63,
      "[": 64,
      "\\": 65,
      "]": 66,
      "^": 67,
      "_": 68,
      "`": 69,
      "a": 70,
      "b": 71,
      "c": 72,
      "d": 73,
      "e": 74,
      "f": 75,
      "g": 76,
      "h": 77,
      "i": 78,
      "j": 79,
      "k": 80,
      "l": 81,
      "m": 82,
      "n": 83,
      "o": 84,
      "p": 85,
      "q": 86,
      "r": 87,
      "s": 88,
      "t": 89,
      "u": 90,
      "v": 91,
      "w": 92,
      "x": 93,
      "y": 94,
      "z": 95,
      "{": 96,
      "|": 97,
      "}": 98,
      "~": 99,
      "¡": 100,
      "¢": 101,
      "£": 102,
      "¤": 103,
      "¥": 104,
      "¦": 105,
      "§": 106,
      "¨": 107,
      "©": 108,
      "ª": 109,
      "«": 110,
      "¬": 111,
      "®": 112,
      "¯": 113,
      "°": 114,
      "±": 115,
      "²": 116,
      "³": 117,
      "´": 118,
      "µ": 119,
      "¶": 120,
      "·": 121,
      "¸": 122,
      "¹": 123,
      "º": 124,
      "»": 125,
      "¼": 126,
      "½": 127,
      "¾": 128,
      "¿": 129,
      "À": 130,
      "Á": 131,
      "Â": 132,
      "Ã": 133,
      "Ä": 134,
      "Å": 135,
      "Æ": 136,
      "Ç": 137,
      "È": 138,
      "É": 139,
      "Ê": 140,
      "Ë": 141,
      "Ì": 142,
      "Í": 143,
      "Î": 144,
      "Ï": 145,
      "Ð": 146,
      "Ñ": 147,
      "Ò": 148,
      "Ó": 149,
      "Ô": 150,
      "Õ": 151,
      "Ö": 152,
      "×": 153,
      "Ø": 154,
      "Ù": 155,
      "Ú": 156,
      "Û": 157,
      "Ü": 158,
      "Ý": 159,
      "Þ": 160,
      "ß": 161,
      "à": 162,
      "á": 163,
      "â": 164,
      "ã": 165,
      "ä": 166,
      "å": 167,
      "æ": 168,
      "ç": 169,
      "è": 170,
      "é": 171,
      "ê": 172,
      "ë": 173,
      "ì": 174,
      "í": 175,
      "î": 176,
      "ï": 177,
      "ð": 178,
      "ñ": 179,
      "ò": 180,
      "ó": 181,
      "ô": 182,
      "õ": 183,
      "ö": 184,
      "÷": 185,
      "ø": 186,
      "ù": 187,
      "ú": 188,
      "û": 189,
      "ü": 190,
      "ý": 191,
      "þ": 192,
      "ÿ": 193,
      "Ā": 194,
      "ā": 195,
      "Ă": 196,
      "ă": 197,
      "Ą": 198,
      "ą": 199,
      "Ć": 200,
      "ć": 201,
      "Ĉ": 202,
      "ĉ": 203,
      "Ċ": 204,
      "ċ": 205,
      "Č": 206,
      "č": 207,
      "Ď": 208,
      "ď": 209,
      "Đ": 210,
      "đ": 211,
      "Ē": 212,
      "ē": 213,
      "Ĕ": 214,
      "ĕ": 215,
      "Ė": 216,
      "ė": 217,
      "Ę": 218,
      "ę": 219,
      "Ě": 220,
      "ě": 221,
      "Ĝ": 222,
      "ĝ": 223,
      "Ğ": 224,
      "ğ": 225,
      "Ġ": 226,
      "ġ": 227,
      "Ģ": 228,
      "ģ": 229,
      "Ĥ": 230,
      "ĥ": 231,
      "Ħ": 232,
      "ħ": 233,
      "Ĩ": 234,
      "ĩ": 235,
      "Ī": 236,
      "ī": 237,
      "Ĭ": 238,
      "ĭ": 239,
      "Į": 240,
      "į": 241,
      "İ": 242,
      "ı": 243,
      "Ĳ": 244,
      "ĳ": 245,
      "Ĵ": 246,
      "ĵ": 247,
      "Ķ": 248,
      "ķ": 249,
      "ĸ": 250,
      "Ĺ": 251,
      "ĺ": 252,
      "Ļ": 253,
      "ļ": 254,
      "Ľ": 255,
      "ľ": 256,
      "Ŀ": 257,
      "ŀ": 258,
      "Ł": 259,
      "ł": 260,
      "Ń": 261,
      "ä¸": 262,
      "en": 263,
      "Ġt": 264,
      "čĊ": 265,
      "äº": 266,
      "çļ": 267,
      "çļĦ": 268,
      "er": 269,
      "ä»": 270,
      "an": 271,
      "Ġh": 272,
      "Ġth": 273,
      "in": 274,
      "Ġd": 275,
      "Ġå": 276,
      "Ġw": 277,
      "æĪ": 278,
      "ä½": 279,
      "è¿": 280,
      "æĺ": 281,
      "æľ": 282,
      "Ġo": 283,
      "at": 284,
      "æĺ¯": 285,
      "åı": 286,
      "Ġa": 287,
      "æĪĳ": 288,
      "Ġs": 289,
      "ä¸Ģ": 290,
      "et": 291,
      "Ġm": 292,
      "å¤": 293,
      "ä¹": 294,
      "åĲ": 295,
      "ou": 296,
      "åħ": 297,
      "è¯": 298,
      "ä½ł": 299,
      "ar": 300,
      "å®": 301,
      "Ġb": 302,
      "Ġi": 303,
      "Ġg": 304,
      "el": 305,
      "ij": 306,
      "å°": 307,
      "Ġz": 308,
      "Ġk": 309,
      "åį": 310,
      "åĪ": 311,
      "Ġthe": 312,
      "ä¸į": 313,
      "ä¸ª": 314,
      "Ġn": 315,
      "è¿Ļ": 316,
      "Ġv": 317,
      "åľ": 318,
      "or": 319,
      "äºĨ": 320,
      "æľī": 321,
      "ĠI": 322,
      "Ġl": 323,
      "and": 324,
      "on": 325,
      "ch": 326,
      "re": 327,
      "st": 328,
      "åĳ": 329,
      "ing": 330,
      "ĥ½": 331,
      "Ġu": 332,
      "ç»": 333,
      "Ġde": 334,
      "æĹ": 335,
      "çĶ": 336,
      "Ġe": 337,
      "Ġp": 338,
      "Ġto": 339,
      "å°±": 340,
      "Ġy": 341,
      "åĽ": 342,
      "ä»ĸ": 343,
      "al": 344,
      "Ġæ": 345,
      "aar": 346,
      "äºº": 347,
      "it": 348,
      "åľ¨": 349,
      "è¯´": 350,
      "æĸ": 351,
      "Ġin": 352,
      "å¾": 353,
      "ĠæĪĳ": 354,
      "ä¼": 355,
      "Ġyou": 356,
      "è®": 357,
      "éĤ": 358,
      "åķ": 359,
      "æĿ": 360,
      "åŃ": 361,
      "es": 362,
      "å¹": 363,
      "å¸": 364,
      "ed": 365,
      "éĤ£": 366,
      "as": 367,
      "Ġc": 368,
      "ow": 369,
      "Ġf": 370,
      "å¥": 371,
      "Ġthat": 372,
      "åįģ": 373,
      "om": 374,
      "Ġ'": 375,
      "è§": 376,
      "å·": 377,
      "ä¹Ī": 378,
      "èĢ": 379,
      "åĬ": 380,
      "Ġit": 381,
      "Ġç": 382,
      "Ġj": 383,
      "éĹ": 384,
      "æĥ": 385,
      "ie": 386,
      "åķĬ": 387,
      "åĮ": 388,
      "ä»¬": 389,
      "Ġof": 390,
      "ot": 391,
      "æī": 392,
      "Ġen": 393,
      "Ġä½ł": 394,
      "Ġha": 395,
      "è¡": 396,
      "éĩ": 397,
      "le": 398,
      "ve": 399,
      "ä¸º": 400,
      "ä»¥": 401,
      "æĿ¥": 402,
      "¦ģ": 403,
      "å¯": 404,
      "å¼": 405,
      "åĳ¢": 406,
      "Ġeen": 407,
      "éĥ½": 408,
      "Ġze": 409,
      "æĬ": 410,
      "åĩ": 411,
      "Ġuh": 412,
      "ea": 413,
      "è¦ģ": 414,
      "ig": 415,
      "æĹ¶": 416,
      "ut": 417,
      "æĢ": 418,
      "Ġwe": 419,
      "äºĮ": 420,
      "åº": 421,
      "åİ": 422,
      "ä¸Ĭ": 423,
      "ä¹Ł": 424,
      "Ġkn": 425,
      "oo": 426,
      "èĥ½": 427,
      "éĢ": 428,
      "Ġbe": 429,
      "ä¸Ń": 430,
      "æ²": 431,
      "åĪ°": 432,
      "Ġst": 433,
      "åĲİ": 434,
      "Ġhet": 435,
      "Ġand": 436,
      "Ġis": 437,
      "å¤§": 438,
      "ä¼ļ": 439,
      "èĩ": 440,
      "Ġknow": 441,
      "çĤ": 442,
      "Ġal": 443,
      "åĨ": 444,
      "Ġhe": 445,
      "éĻ": 446,
      "ere": 447,
      "å¥½": 448,
      "ç§": 449,
      "èµ": 450,
      "çİ": 451,
      "çľ": 452,
      "ijn": 453,
      "Ġon": 454,
      "eah": 455,
      "æł": 456,
      "æĦ": 457,
      "il": 458,
      "Ġdo": 459,
      "å®¶": 460,
      "çĽ": 461,
      "de": 462,
      "is": 463,
      "ĠéĤ£": 464,
      "Ġr": 465,
      "å¹´": 466,
      "å¤©": 467,
      "Ġwas": 468,
      "ä¸ī": 469,
      "ly": 470,
      "éĿ": 471,
      "å¿": 472,
      "ke": 473,
      "åĴ": 474,
      "Uh": 475,
      "ee": 476,
      "çĤ¹": 477,
      "Ġwh": 478,
      "è·": 479,
      "å¤ļ": 480,
      "åıĳ": 481,
      "uh": 482,
      "çĶŁ": 483,
      "ay": 484,
      "åı¯": 485,
      "è¿ĺ": 486,
      "ĠD": 487,
      "æ¯": 488,
      "Ġre": 489,
      "å¾Ĺ": 490,
      "å¯¹": 491,
      "æķ": 492,
      "Ġop": 493,
      "Ġå°": 494,
      "å¦": 495,
      "è´": 496,
      "æĸ¹": 497,
      "Yeah": 498,
      "cht": 499,
      "çĻ": 500,
      "æİ": 501,
      "ä¸ĭ": 502,
      "Ġthey": 503,
      "éģ": 504,
      "è¾": 505,
      "am": 506,
      "æ³": 507,
      "iet": 508,
      "ur": 509,
      "æľĪ": 510,
      "æ²¡": 511,
      "è¿ĩ": 512,
      "ver": 513,
      "oe": 514,
      "æŃ": 515,
      "Ħ¿": 516,
      "åģ": 517,
      "èĩª": 518,
      "åĦ¿": 519,
      "æĥħ": 520,
      "åĩº": 521,
      "se": 522,
      "åİ»": 523,
      "Ħ¶": 524,
      "æŀ": 525,
      "Ġvan": 526,
      "åĽ½": 527,
      "ä¿": 528,
      "æĶ": 529,
      "Ġè¿Ļ": 530,
      "huh": 531,
      "Ġli": 532,
      "èĤ": 533,
      "äºĽ": 534,
      "åĵ": 535,
      "å½": 536,
      "éĽ": 537,
      "åĢ": 538,
      "ĠH": 539,
      "é¢": 540,
      "id": 541,
      "ä»Ģ": 542,
      "Ġge": 543,
      "äºĭ": 544,
      "çİ°": 545,
      "çĹ": 546,
      "ent": 547,
      "è¡Į": 548,
      "å±": 549,
      "oor": 550,
      "Ġå°±": 551,
      "nd": 552,
      "åĴĮ": 553,
      "äºĶ": 554,
      "Ġme": 555,
      "åŃĲ": 556,
      "æ°": 557,
      "gen": 558,
      "çī": 559,
      "åī": 560,
      "ell": 561,
      "åĪĨ": 562,
      "Ġhave": 563,
      "Ġte": 564,
      "çº": 565,
      "åı·": 566,
      "ht": 567,
      "th": 568,
      "åĲĹ": 569,
      "è°": 570,
      "æĭ": 571,
      "æ¬": 572,
      "è·Ł": 573,
      "Ł¥": 574,
      "Ġdat": 575,
      "ak": 576,
      "çĸ": 577,
      "è¯Ŀ": 578,
      "éģĵ": 579,
      "Ġver": 580,
      "Ġä»ĸ": 581,
      "Ġju": 582,
      "æĸ°": 583,
      "åĮ»": 584,
      "èĢħ": 585,
      "éĿ¢": 586,
      "Ġhij": 587,
      "ic": 588,
      "åħ³": 589,
      "å¸Ĥ": 590,
      "Ġzijn": 591,
      "ro": 592,
      "çŃ": 593,
      "æĥ³": 594,
      "çĻ¾": 595,
      "å®ŀ": 596,
      "der": 597,
      "Ġniet": 598,
      "ra": 599,
      "çĶ¨": 600,
      "den": 601,
      "æµ": 602,
      "æĮ": 603,
      "ĠM": 604,
      "im": 605,
      "Ġgo": 606,
      "ag": 607,
      "ally": 608,
      "ink": 609,
      "éĺ": 610,
      "ç»ı": 611,
      "è½": 612,
      "ç½": 613,
      "éĩĮ": 614,
      "Ġik": 615,
      "æ¸": 616,
      "åīį": 617,
      "æł·": 618,
      "ld": 619,
      "Ġåħ": 620,
      "åŃ¦": 621,
      "op": 622,
      "ä¹ĭ": 623,
      "ç»Ļ": 624,
      "çĲ": 625,
      "åľ°": 626,
      "ight": 627,
      "å¿ĥ": 628,
      "ä¾": 629,
      "åĽĽ": 630,
      "æĬ¥": 631,
      "Ġje": 632,
      "åħ¬": 633,
      "èµ·": 634,
      "å¾Ī": 635,
      "ĠE": 636,
      "Ġlike": 637,
      "èģ": 638,
      "ĠçĦ¶": 639,
      "çĪ": 640,
      "è§ī": 641,
      "ä¸ĥ": 642,
      "je": 643,
      "éĹ´": 644,
      "éĹ®": 645,
      "å¼Ģ": 646,
      "ven": 647,
      "Ġä½": 648,
      "äºİ": 649,
      "Ġfor": 650,
      "åĢĻ": 651,
      "ä¸ļ": 652,
      "Ġdon": 653,
      "ç§į": 654,
      "çĿ": 655,
      "Ġer": 656,
      "Ġmet": 657,
      "ol": 658,
      "Ġjust": 659,
      "åħŃ": 660,
      ".'": 661,
      "Ġhad": 662,
      "Ġåı": 663,
      "çľĭ": 664,
      "ç¤": 665,
      "å§": 666,
      "ĠT": 667,
      "ä¹Ŀ": 668,
      "å°ı": 669,
      "æĪĲ": 670,
      "ken": 671,
      "¥¿": 672,
      "æĤ": 673,
      "ĠS": 674,
      "çĹħ": 675,
      "æĦŁ": 676,
      "Ġthink": 677,
      "åħ«": 678,
      "å·±": 679,
      "And": 680,
      "éĽ¶": 681,
      "çŁ¥": 682,
      "è¥¿": 683,
      "un": 684,
      "ant": 685,
      "Ġsom": 686,
      ",'": 687,
      "Ġsch": 688,
      "æŀľ": 689,
      "å®ļ": 690,
      "éĴ": 691,
      "ä½ľ": 692,
      "ä¸¤": 693,
      "æĦı": 694,
      "Ġä½Ĩ": 695,
      "ĠZ": 696,
      "åĲ§": 697,
      "éķ": 698,
      "æ´": 699,
      "å·¥": 700,
      "Ġmo": 701,
      "éĢļ": 702,
      "éĥ": 703,
      "ĠåĽ": 704,
      "æ±": 705,
      "çĲĨ": 706,
      "Ġnaar": 707,
      "ind": 708,
      "æĴ": 709,
      "te": 710,
      "ĠW": 711,
      "au": 712,
      "çŃī": 713,
      "he": 714,
      "æľĢ": 715,
      "é«": 716,
      "Ġan": 717,
      "ould": 718,
      "é«ĺ": 719,
      "åĮº": 720,
      "ijk": 721,
      "æģ": 722,
      "Ġhaar": 723,
      "åĪ«": 724,
      "ĠA": 725,
      "å½ĵ": 726,
      "ä¸»": 727,
      "ä»Ĭ": 728,
      "åģļ": 729,
      "ap": 730,
      "æ³ķ": 731,
      "æ¶": 732,
      "..": 733,
      "ä½ĵ": 734,
      "åŁ": 735,
      "éķ¿": 736,
      "Oh": 737,
      "us": 738,
      "ç®": 739,
      "å®ī": 740,
      "è¿Ľ": 741,
      "ĠB": 742,
      "èĢģ": 743,
      "å¸¸": 744,
      "ith": 745,
      "æ¯Ķ": 746,
      "æĴŃ": 747,
      "åĲį": 748,
      "å¥³": 749,
      "éĥ¨": 750,
      "Ġvoor": 751,
      "åįĹ": 752,
      "æĹ¥": 753,
      "é£": 754,
      "è§£": 755,
      "Ġdie": 756,
      "Ġthere": 757,
      "ad": 758,
      "Ġne": 759,
      "ct": 760,
      "æĻ": 761,
      "åħ¨": 762,
      "åıĭ": 763,
      "Ġnot": 764,
      "but": 765,
      "Ġare": 766,
      "Ġaan": 767,
      "ien": 768,
      "Ġor": 769,
      "æľŁ": 770,
      "åĬ¨": 771,
      "ion": 772,
      "Ġget": 773,
      "Ġwor": 774,
      "ers": 775,
      "Ġno": 776,
      "ir": 777,
      "ĠN": 778,
      "Ġä¸į": 779,
      "ge": 780,
      "out": 781,
      "æĢİ": 782,
      "ä¸ľ": 783,
      "Ġom": 784,
      "æı": 785,
      "ft": 786,
      "éļ": 787,
      "èĬ": 788,
      "Ġå®": 789,
      "ç«": 790,
      "ik": 791,
      "åĿ": 792,
      "çĿĢ": 793,
      "éĻ¢": 794,
      "éĩį": 795,
      "Ġwhat": 796,
      "è¶": 797,
      "ok": 798,
      "Ġreally": 799,
      "èĢĮ": 800,
      "Ġæī": 801,
      "Ġä¸Ģ": 802,
      "Ġall": 803,
      "æĽ": 804,
      "Ġwith": 805,
      "Ġmaar": 806,
      "çĥ": 807,
      "åĲ¬": 808,
      "æį": 809,
      "ç¬": 810,
      "æľº": 811,
      "Ġab": 812,
      "ä»İ": 813,
      "æĢ§": 814,
      "åĽŀ": 815,
      "ĠJ": 816,
      "Ġmy": 817,
      "å¦Ĥ": 818,
      "æ¬¡": 819,
      "åĸ": 820,
      "ll": 821,
      "Ġåį": 822,
      "è¡¨": 823,
      "ä½į": 824,
      "æĺİ": 825,
      "å¤ĸ": 826,
      "ä¿¡": 827,
      "Well": 828,
      "åĺ": 829,
      "æĪĸ": 830,
      "ood": 831,
      "æīĢ": 832,
      "é¦": 833,
      "Ġso": 834,
      "åĨħ": 835,
      "åĽł": 836,
      "åĲĪ": 837,
      "åĳĺ": 838,
      "èĦ": 839,
      "Ġå¤": 840,
      "æĤ¨": 841,
      "å·²": 842,
      "ĠK": 843,
      "è®°": 844,
      "åŃ©": 845,
      "é¢ĺ": 846,
      "ä¸ĩ": 847,
      "Ġuit": 848,
      "éĴ±": 849,
      "Ġsp": 850,
      "?'": 851,
      "em": 852,
      "Ġals": 853,
      "Ġzo": 854,
      "la": 855,
      "è¯¥": 856,
      "Ġzeg": 857,
      "è®²": 858,
      "¦Ĥ": 859,
      "çĶ·": 860,
      "ç½ĳ": 861,
      "ç¤º": 862,
      "Ġæľī": 863,
      "çĽ¸": 864,
      "ĠåĽł": 865,
      "æľĭ": 866,
      "æıĲ": 867,
      "åº¦": 868,
      "Ġwat": 869,
      "Ġpro": 870,
      "åħ¶": 871,
      "è½¦": 872,
      "èº": 873,
      "ĠP": 874,
      "æİ¥": 875,
      "aan": 876,
      "æ³¨": 877,
      "åºĶ": 878,
      "è®©": 879,
      "Ġthing": 880,
      "Ġåľ": 881,
      "å¦Ī": 882,
      "ç³": 883,
      "ç©": 884,
      "èį": 885,
      "Ġover": 886,
      "Ġcan": 887,
      "ast": 888,
      "Ġone": 889,
      "æŃ£": 890,
      "åĲĮ": 891,
      "å©": 892,
      "è¢": 893,
      "ond": 894,
      "Ġåħ¶": 895,
      "åľº": 896,
      "ĠV": 897,
      "æľ¬": 898,
      "Ġabout": 899,
      "ç¾": 900,
      "å¢": 901,
      "èĪ": 902,
      "ce": 903,
      "æĹ©": 904,
      "ess": 905,
      "è¾¹": 906,
      "ru": 907,
      "Ġout": 908,
      "ause": 909,
      "Ġsome": 910,
      "ff": 911,
      "Ġåľ¨": 912,
      "Ġat": 913,
      "ç¨": 914,
      "çĽ´": 915,
      "ĠæīĢ": 916,
      "ĠG": 917,
      "ç»ĵ": 918,
      "Ġzei": 919,
      "ck": 920,
      "é¡": 921,
      "æ°Ķ": 922,
      "ier": 923,
      "èº«": 924,
      "cause": 925,
      "ĠO": 926,
      "art": 927,
      "çĦ¶": 928,
      "å°Ĩ": 929,
      "èĥ": 930,
      "æ´»": 931,
      "Ġthem": 932,
      "Ġas": 933,
      "ist": 934,
      "rou": 935,
      "hat": 936,
      "å²": 937,
      "äº§": 938,
      "çī¹": 939,
      "ich": 940,
      "Ġwil": 941,
      "ç¡": 942,
      "Ġå¹": 943,
      "éľ": 944,
      "Ġif": 945,
      "æ¶Ī": 946,
      "æŁ": 947,
      "Ĺ¯": 948,
      "ç¦": 949,
      "å»": 950,
      "è¢«": 951,
      "Ġè¿ĺ": 952,
      "Ġä¹Ł": 953,
      "Ġå¦Ĥ": 954,
      "æīĭ": 955,
      "ang": 956,
      "åĬł": 957,
      "ĠDe": 958,
      "pen": 959,
      "ĠHij": 960,
      "æ¡": 961,
      "æĬĬ": 962,
      "acht": 963,
      "çĸ«": 964,
      "ç®¡": 965,
      "å¸ĥ": 966,
      "all": 967,
      "eer": 968,
      "Ġwould": 969,
      "å¹³": 970,
      "åħ¥": 971,
      "Ġch": 972,
      "çĪ±": 973,
      "itt": 974,
      "Ġnog": 975,
      "çľŁ": 976,
      "ĠZe": 977,
      "å°ĳ": 978,
      "çī©": 979,
      "çķ": 980,
      "åĬĽ": 981,
      "EN": 982,
      "ĠL": 983,
      "ĠåĲ": 984,
      "Ġlot": 985,
      "ore": 986,
      "Ġhem": 987,
      "ç¬¬": 988,
      "Ġtw": 989,
      "Ġheb": 990,
      "ĠIk": 991,
      "Ġup": 992,
      "aat": 993,
      "å®ĥ": 994,
      "åĳĢ": 995,
      "åĳĬ": 996,
      "ä¿Ŀ": 997,
      "æģ¯": 998,
      "Ġpr": 999,
      "çĽ®": 1000,
      "éĶ": 1001,
      "ab": 1002,
      "åıĹ": 1003,
      "ç´": 1004,
      "Ġgr": 1005,
      "nen": 1006,
      "èĩ³": 1007,
      "ç§ĳ": 1008,
      "Ġma": 1009,
      "Ġcom": 1010,
      "åįĥ": 1011,
      "Ġæĺ¯": 1012,
      "ä»»": 1013,
      "ä¾ĭ": 1014,
      "ĥı": 1015,
      "Ġzegt": 1016,
      "æīĵ": 1017,
      "è®¤": 1018,
      "å¹¿": 1019,
      "çĬ": 1020,
      "ä»¶": 1021,
      "Ġany": 1022,
      "åĺĽ": 1023,
      "eel": 1024,
      "éħ": 1025,
      "åĬ¡": 1026,
      "ard": 1027,
      "èĻ": 1028,
      "ç±": 1029,
      "Ġpe": 1030,
      "ĠC": 1031,
      "ĠèĢĮ": 1032,
      "Ġdan": 1033,
      "å©ļ": 1034,
      "å¤Ħ": 1035,
      "Right": 1036,
      "çĶµ": 1037,
      "è°ĥ": 1038,
      "ear": 1039,
      "éĹ¨": 1040,
      "Ġå®ĥ": 1041,
      "ies": 1042,
      "But": 1043,
      "åı£": 1044,
      "ç³»": 1045,
      "éŁ": 1046,
      "åħĥ": 1047,
      "æķ°": 1048,
      "è§ģ": 1049,
      "æ°ĳ": 1050,
      "Ġfr": 1051,
      "é©": 1052,
      "çľģ": 1053,
      "ĠR": 1054,
      "å®Į": 1055,
      "çł": 1056,
      "éĿŀ": 1057,
      "Ġook": 1058,
      "å¤ª": 1059,
      "ople": 1060,
      "Ġsu": 1061,
      "Ġsee": 1062,
      "åĵģ": 1063,
      "!'": 1064,
      "Ġwhen": 1065,
      "éĩı": 1066,
      "å·ŀ": 1067,
      "Ġkind": 1068,
      "èģĬ": 1069,
      "Ġthis": 1070,
      "So": 1071,
      "ime": 1072,
      "è¿ĳ": 1073,
      "æĹł": 1074,
      "Ġå¯": 1075,
      "äº¤": 1076,
      "Ġwel": 1077,
      "Ġpeople": 1078,
      "åĲĥ": 1079,
      "ett": 1080,
      "Ġæ¯": 1081,
      "aal": 1082,
      "een": 1083,
      "Ik": 1084,
      "åĨį": 1085,
      "çģ": 1086,
      "å»º": 1087,
      "éª": 1088,
      "Ġmu": 1089,
      "è¾ĥ": 1090,
      "åķ¥": 1091,
      "åıĬ": 1092,
      "çĥŃ": 1093,
      "Ġum": 1094,
      "ul": 1095,
      "Ġgoing": 1096,
      "èĲ": 1097,
      "è®¡": 1098,
      "èĬĤ": 1099,
      "æ·": 1100,
      "eth": 1101,
      "èĭ": 1102,
      "ç¡®": 1103,
      "åĮĸ": 1104,
      "åĥı": 1105,
      "å®ĺ": 1106,
      "Ġbecause": 1107,
      "os": 1108,
      "åı¸": 1109,
      "end": 1110,
      "è¿Ĳ": 1111,
      "Ġthen": 1112,
      "éĺ²": 1113,
      "Ġprob": 1114,
      "Ġmijn": 1115,
      "Ġmean": 1116,
      "çº¿": 1117,
      "ç¦»": 1118,
      "è¿ŀ": 1119,
      "éĹ»": 1120,
      "so": 1121,
      "Ġgood": 1122,
      "å¤į": 1123,
      "ree": 1124,
      "åĪ¶": 1125,
      "pt": 1126,
      "Ġgot": 1127,
      "It": 1128,
      "Ġhel": 1129,
      "æķĻ": 1130,
      "Ġbij": 1131,
      "æĽ´": 1132,
      "Ġdid": 1133,
      "æį®": 1134,
      "æ®": 1135,
      "ç¾İ": 1136,
      "åħĪ": 1137,
      "Ġåı¯": 1138,
      "çı": 1139,
      "èĢĥ": 1140,
      "è´¹": 1141,
      "Ġle": 1142,
      "æĶ¿": 1143,
      "èį¯": 1144,
      "ä¸İ": 1145,
      "ort": 1146,
      "Ġyear": 1147,
      "ç¥": 1148,
      "ç²": 1149,
      "èµĦ": 1150,
      "åı°": 1151,
      "åĬŀ": 1152,
      "ĠåĪ": 1153,
      "æĶ¾": 1154,
      "Ġå¯¹": 1155,
      "Ġgu": 1156,
      "ĠEn": 1157,
      "æīį": 1158,
      "Ġever": 1159,
      "we": 1160,
      "one": 1161,
      "åģ¥": 1162,
      "oug": 1163,
      "å¤´": 1164,
      "sen": 1165,
      "ĠåįĹ": 1166,
      "ine": 1167,
      "Ġtr": 1168,
      "åįķ": 1169,
      "æŁ¥": 1170,
      "æ²»": 1171,
      "æ¹": 1172,
      "æµ·": 1173,
      "èģĶ": 1174,
      "å£": 1175,
      "æ¬¢": 1176,
      "Ġwant": 1177,
      "éŁ³": 1178,
      "...": 1179,
      "å²ģ": 1180,
      "That": 1181,
      "åŁİ": 1182,
      "Ġsh": 1183,
      "æ°´": 1184,
      "ze": 1185,
      "um": 1186,
      "åº·": 1187,
      "éľĢ": 1188,
      "å¸Ī": 1189,
      "ool": 1190,
      "åı«": 1191,
      "Ġwork": 1192,
      "æľį": 1193,
      "å¼ı": 1194,
      "é»": 1195,
      "Ġtime": 1196,
      "Ġint": 1197,
      "You": 1198,
      "eten": 1199,
      "æ£": 1200,
      "å¯¼": 1201,
      "Ġdoor": 1202,
      "å®¹": 1203,
      "é¦ĸ": 1204,
      "sch": 1205,
      "è§Ħ": 1206,
      "ç»Ń": 1207,
      "be": 1208,
      "åĶ": 1209,
      "Ġeven": 1210,
      "ç¨ĭ": 1211,
      "çĶ±": 1212,
      "å¸¦": 1213,
      "çĸĹ": 1214,
      "Ġkl": 1215,
      "è¯·": 1216,
      "åĨµ": 1217,
      "éĵ": 1218,
      "Ġbl": 1219,
      "è®®": 1220,
      "æĶ¶": 1221,
      "é¥": 1222,
      "Ġthings": 1223,
      "elf": 1224,
      "è±": 1225,
      "åĸľ": 1226,
      "uit": 1227,
      "Ġzich": 1228,
      "çĬ¶": 1229,
      "æī¾": 1230,
      "é£Ł": 1231,
      "æ»": 1232,
      "æ¯ı": 1233,
      "Ġright": 1234,
      "ä¸ĵ": 1235,
      "æ±Ĥ": 1236,
      "åıĺ": 1237,
      "ĠHet": 1238,
      "æĿ¡": 1239,
      "ive": 1240,
      "Ġå½": 1241,
      "æĸĩ": 1242,
      "åİŁ": 1243,
      "å¿«": 1244,
      "çĻ½": 1245,
      "å±ķ": 1246,
      "Ġnow": 1247,
      "uk": 1248,
      "Ġman": 1249,
      "Ġmore": 1250,
      "æİ§": 1251,
      "ĠåĹ¯": 1252,
      "èī": 1253,
      "Ġkom": 1254,
      "Ġpl": 1255,
      "Ġæ²": 1256,
      "jes": 1257,
      "å¢ŀ": 1258,
      "Ġfrom": 1259,
      "Ġyour": 1260,
      "åĲĳ": 1261,
      "å¹²": 1262,
      "æľª": 1263,
      "Ġbeen": 1264,
      "our": 1265,
      "Ġtoo": 1266,
      "å¼º": 1267,
      "eren": 1268,
      "åĮĹ": 1269,
      "æĮģ": 1270,
      "åĲĦ": 1271,
      "Ġex": 1272,
      "Ġalle": 1273,
      "Ġdi": 1274,
      "ong": 1275,
      "ä¸Ķ": 1276,
      "ation": 1277,
      "ook": 1278,
      "ill": 1279,
      "å¾®": 1280,
      "Ġel": 1281,
      "Ġvr": 1282,
      "é£İ": 1283,
      "Ġwere": 1284,
      "æ¸ħ": 1285,
      "åıĪ": 1286,
      "åĩł": 1287,
      "Ġweer": 1288,
      "Ġus": 1289,
      "ste": 1290,
      "Ń¦": 1291,
      "Ġben": 1292,
      "è·¯": 1293,
      "åĳ¨": 1294,
      "éĩĳ": 1295,
      "Ġkon": 1296,
      "åĵ¥": 1297,
      "è¾¾": 1298,
      "Ġhu": 1299,
      "å½±": 1300,
      "eld": 1301,
      "Ġmee": 1302,
      "åıª": 1303,
      "é¢ĳ": 1304,
      "ething": 1305,
      "Ġta": 1306,
      "ç¤¾": 1307,
      "æĪ¿": 1308,
      "od": 1309,
      "è¯ī": 1310,
      "æ¸¸": 1311,
      "è¯ģ": 1312,
      "æ®µ": 1313,
      "ä¼Ĺ": 1314,
      "è´¨": 1315,
      "ert": 1316,
      "å±Ģ": 1317,
      "ä½ķ": 1318,
      "åĵª": 1319,
      "Ġsomething": 1320,
      "Ġmuch": 1321,
      "ijd": 1322,
      "way": 1323,
      "ç¼": 1324,
      "Ġter": 1325,
      "ĠMaar": 1326,
      "Ġwer": 1327,
      "Ġå½ĵ": 1328,
      "ER": 1329,
      "åķĨ": 1330,
      "Ã©": 1331,
      "è§Ĩ": 1332,
      "æ¡Ī": 1333,
      "Ġevery": 1334,
      "éļ¾": 1335,
      "åı¥": 1336,
      "åĪ©": 1337,
      "ç±»": 1338,
      "èİ": 1339,
      "elijk": 1340,
      "Ġschool": 1341,
      "We": 1342,
      "Ġcar": 1343,
      "äº¬": 1344,
      "Ġä»¥": 1345,
      "oen": 1346,
      "çıŃ": 1347,
      "oeg": 1348,
      "int": 1349,
      "Ġå¤§": 1350,
      "kay": 1351,
      "äº²": 1352,
      "ate": 1353,
      "æĻļ": 1354,
      "Ġaf": 1355,
      "ug": 1356,
      "æ¯Ĵ": 1357,
      "ack": 1358,
      "èµ°": 1359,
      "çĹĩ": 1360,
      "å¼Ł": 1361,
      "Ġçİ": 1362,
      "æĮº": 1363,
      "Ġä»Ĭ": 1364,
      "æĢ»": 1365,
      "è®¾": 1366,
      "Ġguess": 1367,
      "Ġshe": 1368,
      "uur": 1369,
      "æ¸¯": 1370,
      "ç§°": 1371,
      "è°¢": 1372,
      "elt": 1373,
      "Ġbo": 1374,
      "her": 1375,
      "æŃ¤": 1376,
      "Ġwaar": 1377,
      "eft": 1378,
      "åħ»": 1379,
      "èĤº": 1380,
      "Ġwell": 1381,
      "ä¹°": 1382,
      "çĤİ": 1383,
      "ker": 1384,
      "ĠäºĮ": 1385,
      "Ġæ²¡": 1386,
      "ĠF": 1387,
      "Ġheeft": 1388,
      "è§Ĥ": 1389,
      "åŀ": 1390,
      "æ£Ģ": 1391,
      "åıį": 1392,
      "è¡Ģ": 1393,
      "æµģ": 1394,
      "å¾Ģ": 1395,
      "å®¢": 1396,
      "é©¬": 1397,
      "ose": 1398,
      "ĠåĮ": 1399,
      "èĤ²": 1400,
      "è¯Ĭ": 1401,
      "pp": 1402,
      "Ġsa": 1403,
      "ittle": 1404,
      "oos": 1405,
      "èħ": 1406,
      "ĠæĪĸ": 1407,
      "kt": 1408,
      "ä»·": 1409,
      "Ġhere": 1410,
      "The": 1411,
      "æļ": 1412,
      "Ġå¥": 1413,
      "éĢī": 1414,
      "ice": 1415,
      "æł¡": 1416,
      "Ġsn": 1417,
      "Ġzou": 1418,
      "å§ĭ": 1419,
      "èĮ": 1420,
      "éĻħ": 1421,
      "Ġlittle": 1422,
      "Ġbr": 1423,
      "éº": 1424,
      "Ġcon": 1425,
      "Ġæį": 1426,
      "Ġdr": 1427,
      "æĶ¹": 1428,
      "Ġwar": 1429,
      "çħ": 1430,
      "çº¦": 1431,
      "åŁº": 1432,
      "ets": 1433,
      "Ġwhere": 1434,
      "Ġsay": 1435,
      "æķ´": 1436,
      "ĠçĽ": 1437,
      "Ġour": 1438,
      "the": 1439,
      "åĪļ": 1440,
      "ome": 1441,
      "Ġkan": 1442,
      "å¨": 1443,
      "æĺĵ": 1444,
      "yeah": 1445,
      "uw": 1446,
      "¤Ĳ": 1447,
      "å¤Ł": 1448,
      "è°ģ": 1449,
      "æĬ¤": 1450,
      "Ġhow": 1451,
      "Ġdaar": 1452,
      "è¯Ĩ": 1453,
      "ä¿©": 1454,
      "è±¡": 1455,
      "ä¼ł": 1456,
      "nt": 1457,
      "eder": 1458,
      "ame": 1459,
      "æĺ¾": 1460,
      "æŁĲ": 1461,
      "Ġvery": 1462,
      "thing": 1463,
      "éĽĨ": 1464,
      "é¤Ĳ": 1465,
      "çĪ¸": 1466,
      "æµĭ": 1467,
      "å±±": 1468,
      "ther": 1469,
      "ain": 1470,
      "æł¼": 1471,
      "Ġmeer": 1472,
      "éĺ³": 1473,
      "Ġwho": 1474,
      "èĬ±": 1475,
      "æ·±": 1476,
      "åĢ¼": 1477,
      "Ġhand": 1478,
      "Ġkee": 1479,
      "Ġä¸º": 1480,
      "ä½ı": 1481,
      "chter": 1482,
      "ä»½": 1483,
      "Ġva": 1484,
      "è¶ħ": 1485,
      "Ġgew": 1486,
      "Um": 1487,
      "çĿ¡": 1488,
      "Ġæį®": 1489,
      "ster": 1490,
      "Ġbeg": 1491,
      "æĢĿ": 1492,
      "Ġgeen": 1493,
      "åĵį": 1494,
      "Ġnu": 1495,
      "ä»£": 1496,
      "pe": 1497,
      "æĢģ": 1498,
      "å¼ķ": 1499,
      "if": 1500,
      "èŃ¦": 1501,
      "åıĸ": 1502,
      "Ġcould": 1503,
      "Ġkw": 1504,
      "Ġag": 1505,
      "é¢Ħ": 1506,
      "æľĽ": 1507,
      "Ġmoet": 1508,
      "ls": 1509,
      "å§Ķ": 1510,
      "Ġsl": 1511,
      "æŀĹ": 1512,
      "ide": 1513,
      "è¯ķ": 1514,
      "aten": 1515,
      "Ġtheir": 1516,
      "ob": 1517,
      "ben": 1518,
      "åĳĥ": 1519,
      "æĮĩ": 1520,
      "lijk": 1521,
      "åª": 1522,
      "åħ±": 1523,
      "Ġgoed": 1524,
      "Ġvo": 1525,
      "ç»Ħ": 1526,
      "raag": 1527,
      "Ġçİ°": 1528,
      "rij": 1529,
      "Ġä¸Ń": 1530,
      "iep": 1531,
      "é¡¹": 1532,
      "ĠåĴ": 1533,
      "Ġweg": 1534,
      "èĲ¥": 1535,
      "ç©º": 1536,
      "çłĶ": 1537,
      "ually": 1538,
      "Ġother": 1539,
      "çİ©": 1540,
      "æ¯į": 1541,
      "Ġgaan": 1542,
      "Ġbu": 1543,
      "åĿĹ": 1544,
      "æĸ½": 1545,
      "ip": 1546,
      "oof": 1547,
      "æĭ¬": 1548,
      "Ġå¹¶": 1549,
      "ild": 1550,
      "çķĻ": 1551,
      "æłĩ": 1552,
      "çº§": 1553,
      "éĻ¤": 1554,
      "alk": 1555,
      "Ġtegen": 1556,
      "Ġway": 1557,
      "ren": 1558,
      "æħ": 1559,
      "Ġ\"": 1560,
      "çģ«": 1561,
      "oon": 1562,
      "Ġåķ": 1563,
      "¨Ģ": 1564,
      "Ġse": 1565,
      "è¨Ģ": 1566,
      "ough": 1567,
      "Ġyeah": 1568,
      "Ġhun": 1569,
      "å¸®": 1570,
      "ä½¿": 1571,
      "å¼ł": 1572,
      "Ġæ¯Ķ": 1573,
      "æĲ": 1574,
      "äº¿": 1575,
      "Ġhou": 1576,
      "Ġhas": 1577,
      "ç«ĭ": 1578,
      "æĺŁ": 1579,
      "Ġçľ": 1580,
      "own": 1581,
      "åĮħ": 1582,
      "Ġkun": 1583,
      "ä¼¤": 1584,
      "åºķ": 1585,
      "æĢķ": 1586,
      "Ġreal": 1587,
      "ä¼ģ": 1588,
      "ote": 1589,
      "è½¬": 1590,
      "åŃĹ": 1591,
      "æĶ¯": 1592,
      "ten": 1593,
      "èĩ´": 1594,
      "éº¦": 1595,
      "åĩĨ": 1596,
      "æŃ¥": 1597,
      "æŁĵ": 1598,
      "åĨ³": 1599,
      "èĻļ": 1600,
      "Ġyears": 1601,
      "Ġmen": 1602,
      "ç»Ł": 1603,
      "Ġstu": 1604,
      "ef": 1605,
      "æĹħ": 1606,
      "Ġå¹¿": 1607,
      "ç»§": 1608,
      "è£": 1609,
      "çŁ": 1610,
      "å¢ĥ": 1611,
      "Ġback": 1612,
      "Ġging": 1613,
      "ek": 1614,
      "red": 1615,
      "æķĪ": 1616,
      "that": 1617,
      "åįĬ": 1618,
      "åŀĭ": 1619,
      "onder": 1620,
      "Ġhoe": 1621,
      "ably": 1622,
      "Ġtwo": 1623,
      "å¹¶": 1624,
      "men": 1625,
      "çª": 1626,
      "icht": 1627,
      "rouw": 1628,
      "é¦Ļ": 1629,
      "gel": 1630,
      "éĢł": 1631,
      "act": 1632,
      "çĭ": 1633,
      "èĪª": 1634,
      "Ġher": 1635,
      "æĤ£": 1636,
      "ç©¶": 1637,
      "Ġheel": 1638,
      "æĦ¿": 1639,
      "åĬŁ": 1640,
      "dt": 1641,
      "è¡¥": 1642,
      "åĹ¯": 1643,
      "éħĴ": 1644,
      "Ġå¾": 1645,
      "ment": 1646,
      "è¶Ĭ": 1647,
      "inder": 1648,
      "ä¸ĸ": 1649,
      "å¤±": 1650,
      "æŃ»": 1651,
      "ç«Ļ": 1652,
      "Ġwill": 1653,
      "iv": 1654,
      "æĪ·": 1655,
      "ĠåĨ": 1656,
      "æĭī": 1657,
      "etty": 1658,
      "Ġhebben": 1659,
      "éĶĻ": 1660,
      "å®³": 1661,
      "Ġbed": 1662,
      "çĲĥ": 1663,
      "Ġè¦ģ": 1664,
      "Ġbut": 1665,
      "Ġtoen": 1666,
      "zen": 1667,
      "AN": 1668,
      "ige": 1669,
      "innen": 1670,
      "æ¬¾": 1671,
      "Ġpla": 1672,
      "lem": 1673,
      "éĢĤ": 1674,
      "Okay": 1675,
      "Ġgel": 1676,
      "æİ¨": 1677,
      "ust": 1678,
      "ET": 1679,
      "åħĭ": 1680,
      "Ġla": 1681,
      "å±ŀ": 1682,
      "ĠæľĢ": 1683,
      "Ġdoes": 1684,
      "Ġpretty": 1685,
      "No": 1686,
      "Ġna": 1687,
      "Ġkid": 1688,
      "Ġthan": 1689,
      "æİĴ": 1690,
      "è¶³": 1691,
      "Ġä¸ī": 1692,
      "elen": 1693,
      "æŃ¢": 1694,
      "çħ§": 1695,
      "Ġiets": 1696,
      "ä¾¿": 1697,
      "mer": 1698,
      "Ġtoch": 1699,
      "çĪ¶": 1700,
      "Ġkle": 1701,
      "Ġprobably": 1702,
      "åįĸ": 1703,
      "éĻĲ": 1704,
      "çľ¼": 1705,
      "Ġzw": 1706,
      "Ġlang": 1707,
      "Ġmak": 1708,
      "æĳ": 1709,
      "æº": 1710,
      "Ġcomp": 1711,
      "ç²¾": 1712,
      "Ġè¯´": 1713,
      "è®º": 1714,
      "å¤ĩ": 1715,
      "è°Ī": 1716,
      "æĭ¿": 1717,
      "llie": 1718,
      "ity": 1719,
      "akt": 1720,
      "é»Ħ": 1721,
      "Ġvroeg": 1722,
      "res": 1723,
      "Ġq": 1724,
      "éĢģ": 1725,
      "éĺŁ": 1726,
      "oek": 1727,
      "ost": 1728,
      "åĩ»": 1729,
      "Ġdoen": 1730,
      "ody": 1731,
      "Ġcou": 1732,
      "Ġmoe": 1733,
      "èģĮ": 1734,
      "éĻª": 1735,
      "ĠåķĬ": 1736,
      "ä¹ł": 1737,
      "ä¸¥": 1738,
      "ä¹¦": 1739,
      "çĸĳ": 1740,
      "dat": 1741,
      "åĽ¢": 1742,
      "Ġthose": 1743,
      "çķĮ": 1744,
      "Ġwaren": 1745,
      "å£«": 1746,
      "ä¹Ĳ": 1747,
      "elde": 1748,
      "åĪĴ": 1749,
      "Ġvol": 1750,
      "å§Ĳ": 1751,
      "ç®Ĺ": 1752,
      "They": 1753,
      "Ġgez": 1754,
      "Ġday": 1755,
      "åł": 1756,
      "æĬķ": 1757,
      "Yes": 1758,
      "Ġhome": 1759,
      "Ġvader": 1760,
      "Ġgaat": 1761,
      "ä¾Ŀ": 1762,
      "æĬĢ": 1763,
      "ous": 1764,
      "Ġput": 1765,
      "Ġkwam": 1766,
      "éĻį": 1767,
      "Ġfl": 1768,
      "ry": 1769,
      "é¾": 1770,
      "å¦ĩ": 1771,
      "Ġdown": 1772,
      "ĠæĿ": 1773,
      "ber": 1774,
      "Ġäºº": 1775,
      "åįĪ": 1776,
      "De": 1777,
      "Ġachter": 1778,
      "you": 1779,
      "åįļ": 1780,
      "Ġact": 1781,
      "ä¾Ľ": 1782,
      "æķħ": 1783,
      "åį«": 1784,
      "Ġdidn": 1785,
      "ä½İ": 1786,
      "åºĹ": 1787,
      "åºľ": 1788,
      "Ġvl": 1789,
      "æ¸©": 1790,
      "Ġoff": 1791,
      "Ġalso": 1792,
      "å¥¹": 1793,
      "Ġtalk": 1794,
      "Ġweet": 1795,
      "æĭ©": 1796,
      "Ġvert": 1797,
      "åĤ": 1798,
      "ely": 1799,
      "åĬ©": 1800,
      "éĻ©": 1801,
      "çİ¯": 1802,
      "Ġinto": 1803,
      "èİ·": 1804,
      "Ġå¼": 1805,
      "body": 1806,
      "ĠæĢ": 1807,
      "Ġtake": 1808,
      "oy": 1809,
      "Ġdiff": 1810,
      "åŃĺ": 1811,
      "Ġmoeder": 1812,
      "åĴ±": 1813,
      "æ¹¿": 1814,
      "åħį": 1815,
      "Ġlook": 1816,
      "æĽ¾": 1817,
      "åģĩ": 1818,
      "æ¥": 1819,
      "Ġåĳ": 1820,
      "Ġga": 1821,
      "è½»": 1822,
      "per": 1823,
      "ri": 1824,
      "Ġhoor": 1825,
      "AA": 1826,
      "Ġtry": 1827,
      "ç»ľ": 1828,
      "è´£": 1829,
      "Ġroe": 1830,
      "Ġnew": 1831,
      "çĮ": 1832,
      "çŃĶ": 1833,
      "Ġbig": 1834,
      "éĴŁ": 1835,
      "ijkt": 1836,
      "Ġbet": 1837,
      "èĦ¾": 1838,
      "oofd": 1839,
      "Ġhier": 1840,
      "ĠåĴ±": 1841,
      "çĹĽ": 1842,
      "ĠDat": 1843,
      "IJ": 1844,
      "Ġonder": 1845,
      "Ġkids": 1846,
      "round": 1847,
      "other": 1848,
      "Ġä»İ": 1849,
      "èĥĥ": 1850,
      "éĻķ": 1851,
      "ish": 1852,
      "ick": 1853,
      "Ġkinder": 1854,
      "Ġæ¯ı": 1855,
      "åįİ": 1856,
      "Ġcl": 1857,
      "ĠæĬ": 1858,
      "Ġchild": 1859,
      "Ġvraag": 1860,
      "åİĭ": 1861,
      "Ġpart": 1862,
      "æµİ": 1863,
      "Dat": 1864,
      "Ġzien": 1865,
      "Ġlu": 1866,
      "æĿĥ": 1867,
      "etje": 1868,
      "Ġåĵ": 1869,
      "æľ¯": 1870,
      "iend": 1871,
      "they": 1872,
      "og": 1873,
      "æ±Ł": 1874,
      "ure": 1875,
      "æĸ¯": 1876,
      "imes": 1877,
      "ew": 1878,
      "ç¾¤": 1879,
      "ting": 1880,
      "Ġmay": 1881,
      "æĻ®": 1882,
      "ä¸¾": 1883,
      "æ»¡": 1884,
      "Ġä¸ĭ": 1885,
      "Ġstart": 1886,
      "ving": 1887,
      "è¯Ħ": 1888,
      "æĸŃ": 1889,
      "éĢ¼": 1890,
      "çĽĳ": 1891,
      "ci": 1892,
      "omen": 1893,
      "Ġç¬": 1894,
      "Ġeens": 1895,
      "els": 1896,
      "ought": 1897,
      "å£°": 1898,
      "åħī": 1899,
      "orm": 1900,
      "oot": 1901,
      "Ġtot": 1902,
      "ank": 1903,
      "Ġmake": 1904,
      "åĪĽ": 1905,
      "é¢Ĩ": 1906,
      "èĤ¯": 1907,
      "éĢŁ": 1908,
      "éļı": 1909,
      "Ġneed": 1910,
      "ĠæĤ": 1911,
      "Ġjij": 1912,
      "éĨ": 1913,
      "åģľ": 1914,
      "Ġhard": 1915,
      "æ¢": 1916,
      "ingen": 1917,
      "Wat": 1918,
      "åĸĿ": 1919,
      "Ġnever": 1920,
      "æ¼": 1921,
      "Ġpay": 1922,
      "Ġæĸ": 1923,
      "åĪĩ": 1924,
      "Ġkomt": 1925,
      "Ġhal": 1926,
      "çº¢": 1927,
      "éĽ¨": 1928,
      "ways": 1929,
      "Ġstuff": 1930,
      "æĢ¥": 1931,
      "Ġsaid": 1932,
      "Ġè¥¿": 1933,
      "Ġtru": 1934,
      "ä»ĭ": 1935,
      "Ġå¸": 1936,
      "çļ®": 1937,
      "åĩı": 1938,
      "å¿ħ": 1939,
      "Ġå·": 1940,
      "Ġåħ¨": 1941,
      "Ġterug": 1942,
      "EL": 1943,
      "na": 1944,
      "Ġveel": 1945,
      "Ġbel": 1946,
      "Ġnet": 1947,
      "å®Ŀ": 1948,
      "è´¢": 1949,
      "Ġgev": 1950,
      "æĩ": 1951,
      "å¯Ł": 1952,
      "é¥Ń": 1953,
      "Ġou": 1954,
      "Ġjullie": 1955,
      "Ġtra": 1956,
      "è¿ľ": 1957,
      "Ġopen": 1958,
      "Ġkeek": 1959,
      "èĮĥ": 1960,
      "æī¹": 1961,
      "here": 1962,
      "ms": 1963,
      "é¸": 1964,
      "æĮī": 1965,
      "åĿĩ": 1966,
      "Ġkinderen": 1967,
      "Ġè¯¥": 1968,
      "Ġby": 1969,
      "åŃ£": 1970,
      "ief": 1971,
      "çİĩ": 1972,
      "åĪĻ": 1973,
      "Ġç¬¬": 1974,
      "Ġpap": 1975,
      "éªĮ": 1976,
      "Ġwerd": 1977,
      "å«": 1978,
      "oog": 1979,
      "Ġè®©": 1980,
      "å±ħ": 1981,
      "ia": 1982,
      "Ġalways": 1983,
      "Ġden": 1984,
      "ass": 1985,
      "itten": 1986,
      "åįĩ": 1987,
      "ç±³": 1988,
      "ç¥ŀ": 1989,
      "erst": 1990,
      "Ġgre": 1991,
      "ongen": 1992,
      "éĩĩ": 1993,
      "èı": 1994,
      "ĠçĽ®": 1995,
      "Ġhuis": 1996,
      "Ġéĥ½": 1997,
      "åİĨ": 1998,
      "Ġste": 1999,
      "èµĽ": 2000,
      "ne": 2001,
      "oney": 2002,
      "oed": 2003,
      "ĠU": 2004,
      "ç½©": 2005,
      "åĴĭ": 2006,
      "Ġgrote": 2007,
      "å¦¹": 2008,
      "Ġar": 2009,
      "æ±ī": 2010,
      "Ġwent": 2011,
      "é¥®": 2012,
      "åľ³": 2013,
      "Ġons": 2014,
      "well": 2015,
      "ä¸´": 2016,
      "éħį": 2017,
      "æŀĦ": 2018,
      "Ġproblem": 2019,
      "ç¥¨": 2020,
      "amil": 2021,
      "æ¨": 2022,
      "Ġthese": 2023,
      "æł¹": 2024,
      "oord": 2025,
      "Ġåĩ": 2026,
      "èī²": 2027,
      "Ġkeer": 2028,
      "Ġdoing": 2029,
      "ĠåĲĮ": 2030,
      "ç½®": 2031,
      "éĶĢ": 2032,
      "Ġsure": 2033,
      "Het": 2034,
      "sp": 2035,
      "åıĤ": 2036,
      "igen": 2037,
      "tje": 2038,
      "ater": 2039,
      "Ġgl": 2040,
      "Ġnie": 2041,
      "Ġblij": 2042,
      "Ġmoney": 2043,
      "Ġåıª": 2044,
      "mp": 2045,
      "Ġhoofd": 2046,
      "Ġsm": 2047,
      "å·®": 2048,
      "Ġonly": 2049,
      "éĵģ": 2050,
      "Ġfamil": 2051,
      "ĠAls": 2052,
      "Ġanything": 2053,
      "Ġgen": 2054,
      "åºŃ": 2055,
      "Ġhim": 2056,
      "åĶ®": 2057,
      "AT": 2058,
      "En": 2059,
      "è´Ń": 2060,
      "amp": 2061,
      "Ġam": 2062,
      "Ġcall": 2063,
      "Ġra": 2064,
      "Ġlo": 2065,
      "Ġecht": 2066,
      "è´Ł": 2067,
      "Ġstr": 2068,
      "Ġaround": 2069,
      "é£ŀ": 2070,
      "ä¹ī": 2071,
      "ĠæĤ¨": 2072,
      "åħ·": 2073,
      "ix": 2074,
      "Ġåİ": 2075,
      "Ġelk": 2076,
      "Ġvraagt": 2077,
      "Ġper": 2078,
      "æºĲ": 2079,
      "ooit": 2080,
      "Ġro": 2081,
      "ved": 2082,
      "Ġmij": 2083,
      "è®¸": 2084,
      "wij": 2085,
      "open": 2086,
      "Ġtwee": 2087,
      "Ġroept": 2088,
      "oren": 2089,
      "ĠæŃ": 2090,
      "erest": 2091,
      "ĠWe": 2092,
      "ty": 2093,
      "Ġkunnen": 2094,
      "åĽŃ": 2095,
      "å¾·": 2096,
      "å§ĳ": 2097,
      "åįı": 2098,
      "èĤĿ": 2099,
      "åĵĪ": 2100,
      "Ġged": 2101,
      "æĭĽ": 2102,
      "çªģ": 2103,
      "Ġfeel": 2104,
      "èĭ±": 2105,
      "åĲ¸": 2106,
      "å®£": 2107,
      "Ġtoe": 2108,
      "å¸Į": 2109,
      "èĪ¬": 2110,
      "Ġnice": 2111,
      "è§¦": 2112,
      "Ġinterest": 2113,
      "èĲ½": 2114,
      "sten": 2115,
      "èĤī": 2116,
      "æħ¢": 2117,
      "é¼": 2118,
      "åĪĹ": 2119,
      "ä»ĺ": 2120,
      "å°Ķ": 2121,
      "Ġread": 2122,
      "ound": 2123,
      "ä»ħ": 2124,
      "å½¢": 2125,
      "çĸ¾": 2126,
      "wn": 2127,
      "åºĬ": 2128,
      "IN": 2129,
      "Ġrec": 2130,
      "ĠåĽ½": 2131,
      "æł¸": 2132,
      "Ġèĩª": 2133,
      "Ġzitten": 2134,
      "ĠDaar": 2135,
      "Ġhele": 2136,
      "æķĳ": 2137,
      "ans": 2138,
      "Ġgek": 2139,
      "Ġzag": 2140,
      "onden": 2141,
      "éļĶ": 2142,
      "Ġbinnen": 2143,
      "ĠIn": 2144,
      "Ġkomen": 2145,
      "Ġlaat": 2146,
      "åłĤ": 2147,
      "çĨ": 2148,
      "Ġlong": 2149,
      "éĨĴ": 2150,
      "æĪª": 2151,
      "å¨ĺ": 2152,
      "Ġpaar": 2153,
      "ĠåĮħ": 2154,
      "Ġmag": 2155,
      "gh": 2156,
      "Ġmost": 2157,
      "bl": 2158,
      "Ġmis": 2159,
      "ppen": 2160,
      "ç¢": 2161,
      "æģĭ": 2162,
      "amer": 2163,
      "Ġweek": 2164,
      "Ġgro": 2165,
      "åĳĹ": 2166,
      "Ġcome": 2167,
      "ex": 2168,
      "æĩĤ": 2169,
      "Ġandere": 2170,
      "ĠåĨį": 2171,
      "ç»Ĩ": 2172,
      "éģĩ": 2173,
      "Ġalleen": 2174,
      "igh": 2175,
      "erent": 2176,
      "Ġlast": 2177,
      "å¯Ĩ": 2178,
      "ever": 2179,
      "oep": 2180,
      "Maar": 2181,
      "è£ħ": 2182,
      "è§Ĵ": 2183,
      "ull": 2184,
      "gt": 2185,
      "Ġstill": 2186,
      "ç»į": 2187,
      "ç´ł": 2188,
      "Ġthree": 2189,
      "å¾ĭ": 2190,
      "ep": 2191,
      "Ġtijd": 2192,
      "Ġactually": 2193,
      "å¤ľ": 2194,
      "å¯Ĵ": 2195,
      "ĠEen": 2196,
      "é»ĳ": 2197,
      "Ġbest": 2198,
      "Ġdifferent": 2199,
      "ä¼ĺ": 2200,
      "ins": 2201,
      "ĠDE": 2202,
      "Ġåįģ": 2203,
      "Ġogen": 2204,
      "Ġzal": 2205,
      "å¾ħ": 2206,
      "akte": 2207,
      "æ¾": 2208,
      "è¯Ń": 2209,
      "èĤ¾": 2210,
      "å½ķ": 2211,
      "æī¿": 2212,
      "Ġnooit": 2213,
      "Ġwatch": 2214,
      "Ġå¾Ī": 2215,
      "Ġdra": 2216,
      "Ġshould": 2217,
      "Ġwhich": 2218,
      "ä¼¼": 2219,
      "eden": 2220,
      "ç´¢": 2221,
      "mie": 2222,
      "è¿Ŀ": 2223,
      "çīĩ": 2224,
      "æĺ¥": 2225,
      "schien": 2226,
      "Ġused": 2227,
      "als": 2228,
      "Ġçī": 2229,
      "ç´§": 2230,
      "ç´¯": 2231,
      "åªĴ": 2232,
      "äºĴ": 2233,
      "Ġgetting": 2234,
      "åª³": 2235,
      "å·´": 2236,
      "ĠEr": 2237,
      "Ġwordt": 2238,
      "Ġkijkt": 2239,
      "Ġwater": 2240,
      "ĠToen": 2241,
      "Ja": 2242,
      "Ġzit": 2243,
      "age": 2244,
      "Ġdag": 2245,
      "Ġåĸ": 2246,
      "ç¬ĳ": 2247,
      "Ġmany": 2248,
      "Ġont": 2249,
      "Ġæķ": 2250,
      "Ġzelf": 2251,
      "åī¯": 2252,
      "Ġstaan": 2253,
      "Ġriep": 2254,
      "éĴĪ": 2255,
      "iz": 2256,
      "åİ¿": 2257,
      "af": 2258,
      "ger": 2259,
      "èĳ": 2260,
      "auw": 2261,
      "Ġsort": 2262,
      "Ġbit": 2263,
      "ĠSt": 2264,
      "åĪĿ": 2265,
      "Ġdeur": 2266,
      "ue": 2267,
      "Ġdit": 2268,
      "oel": 2269,
      "inn": 2270,
      "æİĪ": 2271,
      "Huh": 2272,
      "Ġworden": 2273,
      "ord": 2274,
      "Ġthought": 2275,
      "Ġdru": 2276,
      "èĻĳ": 2277,
      "ĠåĪ«": 2278,
      "çİĭ": 2279,
      "amen": 2280,
      "du": 2281,
      "ile": 2282,
      "éĿĴ": 2283,
      "è¿İ": 2284,
      "Ġcour": 2285,
      "Ġun": 2286,
      "Ġpar": 2287,
      "é¢Ŀ": 2288,
      "ç½ª": 2289,
      "emaal": 2290,
      "rok": 2291,
      "Ġcol": 2292,
      "eest": 2293,
      "Ġåģ": 2294,
      "ä¹ħ": 2295,
      "av": 2296,
      "Ġad": 2297,
      "Ġnou": 2298,
      "Ġpers": 2299,
      "ijken": 2300,
      "Ġkrij": 2301,
      "OR": 2302,
      "ents": 2303,
      "Ġeverything": 2304,
      "Ġges": 2305,
      "ĠæĽ": 2306,
      "ble": 2307,
      "ĠDan": 2308,
      "Ġæĥ": 2309,
      "äºļ": 2310,
      "æįŁ": 2311,
      "Ġtrue": 2312,
      "ange": 2313,
      "éĺ´": 2314,
      "åŁŁ": 2315,
      "are": 2316,
      "Ġke": 2317,
      "åıĮ": 2318,
      "Ġfir": 2319,
      "æ¨¡": 2320,
      "uis": 2321,
      "å¡": 2322,
      "æĭħ": 2323,
      "Ġmaybe": 2324,
      "Ġjongen": 2325,
      "æ¯Ľ": 2326,
      "Ġæĸ°": 2327,
      "Ġèĥ½": 2328,
      "ç»Ŀ": 2329,
      "oth": 2330,
      "Ġmoeten": 2331,
      "æİª": 2332,
      "Ġchildren": 2333,
      "Ġtea": 2334,
      "ite": 2335,
      "Ġstond": 2336,
      "çĬ¯": 2337,
      "ĠçľŁ": 2338,
      "ach": 2339,
      "tijd": 2340,
      "Ġlea": 2341,
      "Ġelkaar": 2342,
      "ouw": 2343,
      "ter": 2344,
      "åĭ": 2345,
      "oop": 2346,
      "ye": 2347,
      "ĠæĿ¥": 2348,
      "éĤĢ": 2349,
      "ellen": 2350,
      "ĠåĽĽ": 2351,
      "çĶļ": 2352,
      "Ġvast": 2353,
      "ç»´": 2354,
      "maal": 2355,
      "ram": 2356,
      "eds": 2357,
      "çŃĸ": 2358,
      "Ġåĳĥ": 2359,
      "Ġten": 2360,
      "Ġbas": 2361,
      "çĺ": 2362,
      "Ġfar": 2363,
      "Ġalles": 2364,
      "ç¦ı": 2365,
      "Ġsnel": 2366,
      "Ġverd": 2367,
      "æ¹¾": 2368,
      "Ġhis": 2369,
      "rough": 2370,
      "æĪ´": 2371,
      "Ġmin": 2372,
      "ĠæĦ": 2373,
      "Ġç»ı": 2374,
      "Ġgeb": 2375,
      "iel": 2376,
      "Ġtak": 2377,
      "è®¯": 2378,
      "eltje": 2379,
      "ĠåĮĹ": 2380,
      "Ġgra": 2381,
      "ussen": 2382,
      "iks": 2383,
      "Ġhelemaal": 2384,
      "Ġtre": 2385,
      "Ġsame": 2386,
      "åĪ¤": 2387,
      "æĻ¯": 2388,
      "ars": 2389,
      "ikt": 2390,
      "Ġcare": 2391,
      "ple": 2392,
      "èĦĳ": 2393,
      "åĻ": 2394,
      "edere": 2395,
      "Ġold": 2396,
      "Ġfirst": 2397,
      "åĽ´": 2398,
      "ç¤¼": 2399,
      "Ġå¥½": 2400,
      "å®¤": 2401,
      "ST": 2402,
      "Ġç¾": 2403,
      "What": 2404,
      "Ġthrough": 2405,
      "...'": 2406,
      "Ã«": 2407,
      "èĤ¡": 2408,
      "ĠOp": 2409,
      "He": 2410,
      "Ġmon": 2411,
      "Ġgreat": 2412,
      "wijl": 2413,
      "ĠæĮ": 2414,
      "Ġ...": 2415,
      "Ġfun": 2416,
      "Ze": 2417,
      "æĬĹ": 2418,
      "æĿĳ": 2419,
      "IE": 2420,
      "æŀģ": 2421,
      "æ¦Ĥ": 2422,
      "Ġkeep": 2423,
      "ning": 2424,
      "Ġbad": 2425,
      "Ġuse": 2426,
      "Ġpol": 2427,
      "è®¿": 2428,
      "åĲ¦": 2429,
      "eens": 2430,
      "çł´": 2431,
      "etter": 2432,
      "ders": 2433,
      "Ġdone": 2434,
      "Ġplay": 2435,
      "ç»ĩ": 2436,
      "Ġspr": 2437,
      "ma": 2438,
      "idd": 2439,
      "joy": 2440,
      "Ġsla": 2441,
      "å¥ĩ": 2442,
      "band": 2443,
      "åĬ¿": 2444,
      "èĽ": 2445,
      "åĺŁ": 2446,
      "ister": 2447,
      "éĢĢ": 2448,
      "éĵ¶": 2449,
      "ance": 2450,
      "ç§¯": 2451,
      "æŃ¦": 2452,
      "Ġsc": 2453,
      "Ġhouse": 2454,
      "åĹ": 2455,
      "å®¡": 2456,
      "ĠäºĶ": 2457,
      "åı³": 2458,
      "iek": 2459,
      "æ¶ī": 2460,
      "äº¡": 2461,
      "racht": 2462,
      "Ġé¦ĸ": 2463,
      "ä½Ļ": 2464,
      "Ġä¸Ĭ": 2465,
      "Ġenjoy": 2466,
      "Ġdacht": 2467,
      "enty": 2468,
      "æģ¢": 2469,
      "aas": 2470,
      "Ġmoest": 2471,
      "Ġstaat": 2472,
      "over": 2473,
      "Ġheen": 2474,
      "èĦ¸": 2475,
      "ĠCh": 2476,
      "æĪĺ": 2477,
      "Ġå¿": 2478,
      "Ġhadden": 2479,
      "Ġfind": 2480,
      "å¦Ļ": 2481,
      "Ġaltijd": 2482,
      "CH": 2483,
      "uiten": 2484,
      "ĠåĬ": 2485,
      "åį¡": 2486,
      "å¿Ĺ": 2487,
      "Ġå°Ĩ": 2488,
      "æ¤": 2489,
      "å·¦": 2490,
      "Ġwilde": 2491,
      "Ġvind": 2492,
      "ĠWat": 2493,
      "Ġperson": 2494,
      "è¾ĵ": 2495,
      "çłģ": 2496,
      "Ġoh": 2497,
      "Ã©n": 2498,
      "Ġbegon": 2499,
      "æĺ¨": 2500,
      "ary": 2501,
      "Ġcount": 2502,
      "agen": 2503,
      "Ġcourse": 2504,
      "Ġæł": 2505,
      "Ġè·Ł": 2506,
      "ons": 2507,
      "Ġåĵª": 2508,
      "Ġant": 2509,
      "ĠDie": 2510,
      "Ġå°ı": 2511,
      "mand": 2512,
      "Ġty": 2513,
      "Ġmaken": 2514,
      "ä¹ĺ": 2515,
      "ç®Ģ": 2516,
      "å¤«": 2517,
      "Ġhaven": 2518,
      "åħĦ": 2519,
      "ç»Ī": 2520,
      "ots": 2521,
      "åĳ¼": 2522,
      "æĸĻ": 2523,
      "zelf": 2524,
      "Ġmom": 2525,
      "æİī": 2526,
      "Ġzeggen": 2527,
      "Ġç¾İ": 2528,
      "Ġokay": 2529,
      "åħ´": 2530,
      "åĨľ": 2531,
      "fe": 2532,
      "Ġeigen": 2533,
      "Ġpo": 2534,
      "æĿİ": 2535,
      "AAR": 2536,
      "Ġbeing": 2537,
      "åĨĽ": 2538,
      "allen": 2539,
      "¿Ģ": 2540,
      "èŀ": 2541,
      "Ġnat": 2542,
      "ĠæĪª": 2543,
      "ces": 2544,
      "Ġä»Ģ": 2545,
      "è¯¾": 2546,
      "æ¾³": 2547,
      "Je": 2548,
      "fore": 2549,
      "è¿½": 2550,
      "éľ²": 2551,
      "Ġfamily": 2552,
      "åĿĲ": 2553,
      "Ġhappen": 2554,
      "éħ¸": 2555,
      "Do": 2556,
      "è¯»": 2557,
      "ful": 2558,
      "æ²¹": 2559,
      "Ġniks": 2560,
      "å¯Į": 2561,
      "ä¿®": 2562,
      "Ġåĸľ": 2563,
      "ä»į": 2564,
      "ats": 2565,
      "edereen": 2566,
      "ike": 2567,
      "æ²³": 2568,
      "çĶ³": 2569,
      "åĻ¨": 2570,
      "åĽ°": 2571,
      "erk": 2572,
      "iden": 2573,
      "able": 2574,
      "Ġmensen": 2575,
      "vel": 2576,
      "åħħ": 2577,
      "ĠæĶ": 2578,
      "Ġgewoon": 2579,
      "å¤ı": 2580,
      "Ġzat": 2581,
      "æĿŁ": 2582,
      "Ġquit": 2583,
      "éļľ": 2584,
      "Ġkoning": 2585,
      "çŁŃ": 2586,
      "Ġdoet": 2587,
      "å¿µ": 2588,
      "éĻĦ": 2589,
      "Ġdoesn": 2590,
      "ian": 2591,
      "Ġthough": 2592,
      "ç«¥": 2593,
      "Nee": 2594,
      "Ġåıį": 2595,
      "alt": 2596,
      "çºª": 2597,
      "self": 2598,
      "Ġbefore": 2599,
      "æŀ¶": 2600,
      "Ġlive": 2601,
      "æį¢": 2602,
      "aart": 2603,
      "Ġerg": 2604,
      "ĠJe": 2605,
      "man": 2606,
      "äº«": 2607,
      "Ġlee": 2608,
      "åĳ³": 2609,
      "Ġwhole": 2610,
      "Ġsteeds": 2611,
      "Ġfour": 2612,
      "ise": 2613,
      "è´§": 2614,
      "æ¿Ģ": 2615,
      "Ġac": 2616,
      "Ġmoo": 2617,
      "Ġpre": 2618,
      "çº³": 2619,
      "land": 2620,
      "åĨł": 2621,
      "ĠåĪ°": 2622,
      "æĵ": 2623,
      "Ġåº": 2624,
      "Ġsupp": 2625,
      "ummie": 2626,
      "Ġcr": 2627,
      "Ġçī¹": 2628,
      "Ġä¸¤": 2629,
      "ele": 2630,
      "æ¯ķ": 2631,
      "éĿł": 2632,
      "fter": 2633,
      "ikk": 2634,
      "ĠåĲİ": 2635,
      "çľł": 2636,
      "é¦Ĩ": 2637,
      "åĳ½": 2638,
      "åĽ¾": 2639,
      "Ġåıĳ": 2640,
      "Ġallemaal": 2641,
      "èŀį": 2642,
      "é²": 2643,
      "ether": 2644,
      "Ġtalking": 2645,
      "bij": 2646,
      "èĨ": 2647,
      "Ġeer": 2648,
      "æĻº": 2649,
      "èī¯": 2650,
      "å³": 2651,
      "ather": 2652,
      "å°½": 2653,
      "æ´Ĺ": 2654,
      "Ġkijken": 2655,
      "Ġlet": 2656,
      "æ¹ĸ": 2657,
      "Ġwonder": 2658,
      ".\"": 2659,
      "Ġund": 2660,
      "ç«Ł": 2661,
      "åĸĦ": 2662,
      "ĠæĢİ": 2663,
      "orgen": 2664,
      "çĥŁ": 2665,
      "ress": 2666,
      "Ġantw": 2667,
      "Ġmeis": 2668,
      "ĠÃ©": 2669,
      "Ġå¤ļ": 2670,
      "Ġdu": 2671,
      "Ġlater": 2672,
      "ĠAl": 2673,
      "Ġziet": 2674,
      "èĤ¤": 2675,
      "Ġdeed": 2676,
      "é¡º": 2677,
      "Ġseems": 2678,
      "Ġsix": 2679,
      "oopt": 2680,
      "uurlijk": 2681,
      "Ġæĺİ": 2682,
      "çĽĬ": 2683,
      "ertain": 2684,
      "Ġcont": 2685,
      "Ġschu": 2686,
      "aa": 2687,
      "Hij": 2688,
      "Ġbent": 2689,
      "è¾Ĩ": 2690,
      "é¸¡": 2691,
      "Ġbes": 2692,
      "Ġple": 2693,
      "ither": 2694,
      "èĭ¦": 2695,
      "Ġbetter": 2696,
      "ç³ĸ": 2697,
      "Ġhalf": 2698,
      "Ġagain": 2699,
      "å«Į": 2700,
      "Ġdoll": 2701,
      "åĢŁ": 2702,
      "Ġlach": 2703,
      "Ġwij": 2704,
      "Ġfact": 2705,
      "Ġeight": 2706,
      "Ġrem": 2707,
      "Ġhelp": 2708,
      "ĠJan": 2709,
      "éªĹ": 2710,
      "é¾Ħ": 2711,
      "Ġcolle": 2712,
      "Ġåı¦": 2713,
      "æĥ¯": 2714,
      "uren": 2715,
      "Ġinteresting": 2716,
      "Is": 2717,
      "çŀ": 2718,
      "çĻ»": 2719,
      "æļ´": 2720,
      "Ġmonth": 2721,
      "In": 2722,
      "éĻĪ": 2723,
      "Ġniets": 2724,
      "å©Ĩ": 2725,
      "ç¼º": 2726,
      "èĸ": 2727,
      "åį°": 2728,
      "åĨ·": 2729,
      "èĻ½": 2730,
      "Ġæĥ³": 2731,
      "Ġfive": 2732,
      "Ġä¸ĥ": 2733,
      "Ġown": 2734,
      "ä¼´": 2735,
      "èįī": 2736,
      "Ġtrying": 2737,
      "ght": 2738,
      "å¼Ĥ": 2739,
      "Ġkleine": 2740,
      "Ġafter": 2741,
      "Ġjob": 2742,
      "gens": 2743,
      "usband": 2744,
      "Ġgeh": 2745,
      "Ġelse": 2746,
      "Ġhigh": 2747,
      "Ġmam": 2748,
      "Ġwist": 2749,
      "ated": 2750,
      "æµª": 2751,
      "ç½ļ": 2752,
      "Ġæ¬": 2753,
      "Ġæİ": 2754,
      "åı²": 2755,
      "èģļ": 2756,
      "Ġhusband": 2757,
      "åĲ¯": 2758,
      "å¥Ĺ": 2759,
      "éĢı": 2760,
      "ç§ģ": 2761,
      "ĠTex": 2762,
      "æī§": 2763,
      "ijna": 2764,
      "ieren": 2765,
      "Ġquite": 2766,
      "éĽħ": 2767,
      "çīĻ": 2768,
      "Ġbuy": 2769,
      "Ġæ°": 2770,
      "Ġç§": 2771,
      "å§»": 2772,
      "me": 2773,
      "Ġdeze": 2774,
      "Ġru": 2775,
      "å»¶": 2776,
      "ical": 2777,
      "Ġhen": 2778,
      "etimes": 2779,
      "æĪı": 2780,
      "ieve": 2781,
      "ON": 2782,
      "ijf": 2783,
      "Ġgroot": 2784,
      "Ġland": 2785,
      "ĠçĶ±": 2786,
      "æ¡£": 2787,
      "ĠåĲ¬": 2788,
      "åĶł": 2789,
      "ĠæĽ´": 2790,
      "ĠDummie": 2791,
      "ĠMet": 2792,
      "Ġarea": 2793,
      "ied": 2794,
      "vol": 2795,
      "EE": 2796,
      "Ġboven": 2797,
      "éĺ¿": 2798,
      "Ġago": 2799,
      "ĠæĹł": 2800,
      "Ġtell": 2801,
      "Ġaut": 2802,
      "urn": 2803,
      "Ġçľĭ": 2804,
      "åºı": 2805,
      "Ġmeester": 2806,
      "åĪ·": 2807,
      "qu": 2808,
      "Ġser": 2809,
      "Ġgezicht": 2810,
      "ead": 2811,
      "çĸ¼": 2812,
      "alen": 2813,
      "Ġstop": 2814,
      "Ġplan": 2815,
      "äºī": 2816,
      "è°ĵ": 2817,
      "ĠGoos": 2818,
      "ves": 2819,
      "ĠéĿŀ": 2820,
      "Ġweten": 2821,
      "Ġå¥¹": 2822,
      "Ġbuiten": 2823,
      "aren": 2824,
      "æ²Ļ": 2825,
      "ĠÃ©Ã©n": 2826,
      "ijke": 2827,
      "Ġeither": 2828,
      "çīĮ": 2829,
      "çıł": 2830,
      "åĲµ": 2831,
      "Ġlig": 2832,
      "å¥¶": 2833,
      "Ġanders": 2834,
      "æĤī": 2835,
      "è®Ń": 2836,
      "èĤ¥": 2837,
      "Ġanother": 2838,
      "èĥĮ": 2839,
      "è¡£": 2840,
      "Ġverder": 2841,
      "Ġå·²": 2842,
      "åįł": 2843,
      "its": 2844,
      "Ġè°ģ": 2845,
      "ĠIK": 2846,
      "ĠæĬĬ": 2847,
      "åľĪ": 2848,
      "Ġbus": 2849,
      "Ġlaten": 2850,
      "stem": 2851,
      "å¾ģ": 2852,
      "åĢĴ": 2853,
      "ĠSam": 2854,
      "cl": 2855,
      "å±Ĥ": 2856,
      "æ½": 2857,
      "Ġdus": 2858,
      "åºĨ": 2859,
      "ç§Ł": 2860,
      "Ġklas": 2861,
      "Ġliep": 2862,
      "éĹŃ": 2863,
      "ç£": 2864,
      "åĨĻ": 2865,
      "æİ¢": 2866,
      "ndred": 2867,
      "çĭ¬": 2868,
      "ĠçĻ": 2869,
      "Ġhaving": 2870,
      "ĠéĢļ": 2871,
      "ende": 2872,
      "Ġsy": 2873,
      "åĲ«": 2874,
      "ĠåĲĦ": 2875,
      "ucht": 2876,
      "Ġbeetje": 2877,
      "æŃĮ": 2878,
      "é¾Ļ": 2879,
      "è·ĳ": 2880,
      "ict": 2881,
      "Ġtax": 2882,
      "ĠèĢģ": 2883,
      "Ġcertain": 2884,
      "é¡¾": 2885,
      "io": 2886,
      "Ġbijna": 2887,
      "Ġæµ": 2888,
      "Ġåħ«": 2889,
      "ĠåħŃ": 2890,
      "Ġvriend": 2891,
      "ĠTexas": 2892,
      "ĠéĻķ": 2893,
      "æĭį": 2894,
      "Ġmeteen": 2895,
      "åĳĲ": 2896,
      "èĦı": 2897,
      "Ġhundred": 2898,
      "Ġsit": 2899,
      "Ġæ³": 2900,
      "ä¼ĳ": 2901,
      "Ġmov": 2902,
      "emand": 2903,
      "Ġterwijl": 2904,
      "az": 2905,
      "æĿ¿": 2906,
      "ions": 2907,
      "ç¨³": 2908,
      "Ġcouple": 2909,
      "Ġteach": 2910,
      "åķ¦": 2911,
      "Ġgebe": 2912,
      "äºĪ": 2913,
      "éĢĴ": 2914,
      "Ġå®ŀ": 2915,
      "èĥĸ": 2916,
      "éª¨": 2917,
      "Ġplace": 2918,
      "aam": 2919,
      "ina": 2920,
      "åį³": 2921,
      "èµļ": 2922,
      "åĤ»": 2923,
      "OE": 2924,
      "Ġmar": 2925,
      "å¤®": 2926,
      "Ġgee": 2927,
      "ically": 2928,
      "Ġtwenty": 2929,
      "æ¥¼": 2930,
      "ĠéĻ¤": 2931,
      "Ġkamer": 2932,
      "ĠåĶ": 2933,
      "Ġprins": 2934,
      "Ġseen": 2935,
      "Ġæ¶": 2936,
      "æ¥ļ": 2937,
      "Ġä¼ļ": 2938,
      "çīĽ": 2939,
      "Ġshow": 2940,
      "because": 2941,
      "æ¼Ķ": 2942,
      "cent": 2943,
      "hen": 2944,
      "åİħ": 2945,
      "akken": 2946,
      "ĠæĦŁ": 2947,
      "Ġæ·": 2948,
      "Ġenough": 2949,
      "Ġalsof": 2950,
      "no": 2951,
      "Ġloopt": 2952,
      "åĨ²": 2953,
      "ĠAr": 2954,
      "ç©¿": 2955,
      "Ġwacht": 2956,
      "Ġrun": 2957,
      "get": 2958,
      "Ġwhy": 2959,
      "Ġverl": 2960,
      "éĺ¶": 2961,
      "ift": 2962,
      "ĠAnd": 2963,
      "åı¤": 2964,
      "Ġwhatever": 2965,
      "gd": 2966,
      "ks": 2967,
      "Ġç»Ļ": 2968,
      "Ġå±": 2969,
      "oud": 2970,
      "Ġstem": 2971,
      "Ġstuk": 2972,
      "èĮ¶": 2973,
      "èıľ": 2974,
      "äºĳ": 2975,
      "Ġpu": 2976,
      "ĠæŃ¤": 2977,
      "ecause": 2978,
      "ĠçĶļ": 2979,
      "ath": 2980,
      "Ġstap": 2981,
      "Ġhebt": 2982,
      "Ġrest": 2983,
      "Ġimp": 2984,
      "æĿĲ": 2985,
      "è¡Ĺ": 2986,
      "é¡»": 2987,
      "æļĤ": 2988,
      "ah": 2989,
      "åı¦": 2990,
      "ä¼Ĭ": 2991,
      "æ³¢": 2992,
      "Ġæł¹": 2993,
      "å³°": 2994,
      "OM": 2995,
      "Ġend": 2996,
      "ç½Ĺ": 2997,
      "Ġåħ¬": 2998,
      "IT": 2999,
      "æĢĢ": 3000,
      "éģ¿": 3001,
      "day": 3002,
      "oh": 3003,
      "kend": 3004,
      "ç¡Ģ": 3005,
      "ä¹±": 3006,
      "ç»¼": 3007,
      "Ġzeker": 3008,
      "éŁ©": 3009,
      "ult": 3010,
      "é¼»": 3011,
      "Ġapp": 3012,
      "Ġrond": 3013,
      "Ġverb": 3014,
      "ä»¤": 3015,
      "Ġaway": 3016,
      "è¯¢": 3017,
      "Ġzij": 3018,
      "Ġmeneer": 3019,
      "Ġtype": 3020,
      "erd": 3021,
      "Ġæĭ": 3022,
      "æķ¢": 3023,
      "ĠEEN": 3024,
      "ember": 3025,
      "Ġsomebody": 3026,
      "è¿Ķ": 3027,
      "æ±¤": 3028,
      "Ġfriend": 3029,
      "Ġdrie": 3030,
      "è´·": 3031,
      "ĠåºĶ": 3032,
      "ave": 3033,
      "åŁ¹": 3034,
      "aur": 3035,
      "Ġä¸»": 3036,
      "Ġwr": 3037,
      "Ġfew": 3038,
      "éªĤ": 3039,
      "Ġwhile": 3040,
      "æĽ²": 3041,
      "éĵ¾": 3042,
      "Een": 3043,
      "åĿļ": 3044,
      "æķı": 3045,
      "ny": 3046,
      "Ġå»": 3047,
      "Ġpa": 3048,
      "çŃ¾": 3049,
      "ount": 3050,
      "Ġnee": 3051,
      "erde": 3052,
      "Ġqu": 3053,
      "Ġkr": 3054,
      "åĬ³": 3055,
      "éĹ¹": 3056,
      "ĠBr": 3057,
      "è®¢": 3058,
      "å±ı": 3059,
      "ys": 3060,
      "çĵ": 3061,
      "ouden": 3062,
      "èĦ±": 3063,
      "Ġåİ»": 3064,
      "Ġdraa": 3065,
      "right": 3066,
      "Ġtimes": 3067,
      "Ġsle": 3068,
      "Ġbal": 3069,
      "Ġble": 3070,
      "Ġæ¸": 3071,
      "ä¼Ļ": 3072,
      "å¹¸": 3073,
      "Ġheard": 3074,
      "ĠåıĪ": 3075,
      "heid": 3076,
      "Ġusually": 3077,
      "è¯¯": 3078,
      "ont": 3079,
      "oten": 3080,
      "æķ£": 3081,
      "è´´": 3082,
      "bb": 3083,
      "kk": 3084,
      "ale": 3085,
      "Ġstil": 3086,
      "ç¿": 3087,
      "Ġeten": 3088,
      "åī§": 3089,
      "ens": 3090,
      "Ġåī": 3091,
      "ç»ª": 3092,
      "Ġcas": 3093,
      "ĠMar": 3094,
      "ç¦ģ": 3095,
      "Ġzet": 3096,
      "Ġomdat": 3097,
      "ular": 3098,
      "Ġdollars": 3099,
      "Ġonze": 3100,
      "å½©": 3101,
      "aught": 3102,
      "Ġvis": 3103,
      "éķĩ": 3104,
      "ĠAn": 3105,
      "Ġdicht": 3106,
      "Ġåĩº": 3107,
      "cation": 3108,
      "åį±": 3109,
      "å¿Ļ": 3110,
      "Ġsometimes": 3111,
      "Ġåģļ": 3112,
      "allas": 3113,
      "Ġcollege": 3114,
      "inden": 3115,
      "åħ°": 3116,
      "Ġdec": 3117,
      "Als": 3118,
      "Ġbez": 3119,
      "å®ģ": 3120,
      "Ġgive": 3121,
      "ç¨İ": 3122,
      "çŁ³": 3123,
      "ullen": 3124,
      "çĩ": 3125,
      "Ġpoint": 3126,
      "Ġiemand": 3127,
      "angen": 3128,
      "ince": 3129,
      "Ġable": 3130,
      "Ġ(": 3131,
      "ĠUh": 3132,
      "aard": 3133,
      "ards": 3134,
      "ors": 3135,
      "Ġjur": 3136,
      "éģĹ": 3137,
      "Ġcompan": 3138,
      "Ġzie": 3139,
      "Ġcountry": 3140,
      "Ġiedereen": 3141,
      "å¥ĸ": 3142,
      "Ġlife": 3143,
      "actly": 3144,
      "Ġsystem": 3145,
      "Ġdur": 3146,
      "Ġthir": 3147,
      "Ġbro": 3148,
      "åŃķ": 3149,
      "ĠDallas": 3150,
      "ire": 3151,
      "Ġsamen": 3152,
      "Ġmus": 3153,
      "ĠZijn": 3154,
      "osed": 3155,
      "Ġnews": 3156,
      "ä½©": 3157,
      "æ¦": 3158,
      "Ġè¢«": 3159,
      "Ġdis": 3160,
      "Ġstay": 3161,
      "my": 3162,
      "äº®": 3163,
      "Ġåĥı": 3164,
      "Ġeas": 3165,
      "æŀĲ": 3166,
      "Ġoma": 3167,
      "ĠçĶ¨": 3168,
      "åĺ´": 3169,
      "Ġremember": 3170,
      "Ġmight": 3171,
      "isschien": 3172,
      "å¿ĺ": 3173,
      "ĠWil": 3174,
      "Ġmade": 3175,
      "Ġé«ĺ": 3176,
      "Ġboth": 3177,
      "çĪĨ": 3178,
      "ikte": 3179,
      "ĠVan": 3180,
      "çĨŁ": 3181,
      "åĵ¦": 3182,
      "ĠTh": 3183,
      "pl": 3184,
      "Ġnight": 3185,
      "room": 3186,
      "Waar": 3187,
      "æ±½": 3188,
      "ç¼ĵ": 3189,
      "My": 3190,
      "che": 3191,
      "è½¨": 3192,
      "å°¿": 3193,
      "onk": 3194,
      "Ġpick": 3195,
      "oeken": 3196,
      "èĭı": 3197,
      "Ġ-": 3198,
      "ges": 3199,
      "Ġæľ¬": 3200,
      "Ġspend": 3201,
      "spe": 3202,
      "vrouw": 3203,
      "æĮ£": 3204,
      "èĦļ": 3205,
      "Ġwouldn": 3206,
      "Ġleuk": 3207,
      "ac": 3208,
      "Ġlie": 3209,
      "è´¦": 3210,
      "Ġworking": 3211,
      "ç§»": 3212,
      "Ġè¿ĳ": 3213,
      "mee": 3214,
      "Ġlacht": 3215,
      "é©¾": 3216,
      "ĠçĽ¸": 3217,
      "Ġvrouw": 3218,
      "ings": 3219,
      "åĨĴ": 3220,
      "æ¡¥": 3221,
      "Ġæ¬¢": 3222,
      "sa": 3223,
      "å¦»": 3224,
      "Ġstarted": 3225,
      "Ġja": 3226,
      "oem": 3227,
      "ĠZo": 3228,
      "ĠåŃ": 3229,
      "Ġjaar": 3230,
      "æ´²": 3231,
      "åĿı": 3232,
      "laas": 3233,
      "è¿°": 3234,
      "ç©´": 3235,
      "Ġleg": 3236,
      "ĠYou": 3237,
      "iets": 3238,
      "raat": 3239,
      "Ġsound": 3240,
      "Ġbos": 3241,
      "åģı": 3242,
      "çĥ§": 3243,
      "Ġå¤©": 3244,
      "ç²¤": 3245,
      "åĪĳ": 3246,
      "Ġvond": 3247,
      "Ġhanden": 3248,
      "There": 3249,
      "ield": 3250,
      "Ġav": 3251,
      "å±Ĭ": 3252,
      "aken": 3253,
      "æĻ¨": 3254,
      "Ġgeweest": 3255,
      "Ġminut": 3256,
      "Ġå»º": 3257,
      "AR": 3258,
      "of": 3259,
      "orn": 3260,
      ",\"": 3261,
      "Ġid": 3262,
      "Ġkant": 3263,
      "åº§": 3264,
      "Ġliet": 3265,
      "ect": 3266,
      "å®Ī": 3267,
      "gest": 3268,
      "Ġlucht": 3269,
      "æĵį": 3270,
      "How": 3271,
      "most": 3272,
      "éļĲ": 3273,
      "kken": 3274,
      "ern": 3275,
      "Ġve": 3276,
      "Ġjou": 3277,
      "æ°¸": 3278,
      "Ġprog": 3279,
      "åľŁ": 3280,
      "è½½": 3281,
      "Ġsomeone": 3282,
      "Ġgebeur": 3283,
      "Ġdood": 3284,
      "Ġvinden": 3285,
      "ç²ī": 3286,
      "çĭĹ": 3287,
      "å°¼": 3288,
      "Ġtop": 3289,
      "çīĪ": 3290,
      "Th": 3291,
      "Ġol": 3292,
      "Ġbre": 3293,
      "å¸Ń": 3294,
      "èĭĹ": 3295,
      "Ġzacht": 3296,
      "Ġinst": 3297,
      "Ġwasn": 3298,
      "ious": 3299,
      "oet": 3300,
      "ä¹¡": 3301,
      "Ġgrond": 3302,
      "Ġoude": 3303,
      "ĠåĬł": 3304,
      "Ġsince": 3305,
      "å¹ħ": 3306,
      "enen": 3307,
      "ĠæĻ": 3308,
      "there": 3309,
      "Ġverh": 3310,
      "wer": 3311,
      "åĪ»": 3312,
      "ä¼°": 3313,
      "Ġmisschien": 3314,
      "Hoe": 3315,
      "Ġç¡": 3316,
      "æĲľ": 3317,
      "Ġè°¢": 3318,
      "Ġyoun": 3319,
      "ING": 3320,
      "Ġnatuurlijk": 3321,
      "mis": 3322,
      "è¸": 3323,
      "èĤł": 3324,
      "uin": 3325,
      "çģµ": 3326,
      "Ġleast": 3327,
      "Ġeerste": 3328,
      "Ġnum": 3329,
      "Ġones": 3330,
      "Ġonce": 3331,
      "å²Ľ": 3332,
      "ukk": 3333,
      "Ġmeisje": 3334,
      "Ġbang": 3335,
      "Ġæ±": 3336,
      "Ġseem": 3337,
      "Dan": 3338,
      "Ġé¦Ļ": 3339,
      "Ġcame": 3340,
      "Ġç½": 3341,
      "èĤ¿": 3342,
      "ä¾µ": 3343,
      "Ġlopen": 3344,
      "ante": 3345,
      "çĦ": 3346,
      "èĹ": 3347,
      "èĪĴ": 3348,
      "ĠçĶŁ": 3349,
      "è¾Ī": 3350,
      "Ġext": 3351,
      "ĠFr": 3352,
      "pr": 3353,
      "Ġwon": 3354,
      "Ġvoet": 3355,
      "Ġå¼Ģ": 3356,
      "Ġå¸Į": 3357,
      "ize": 3358,
      "sh": 3359,
      "Ġmil": 3360,
      "cial": 3361,
      "å°ģ": 3362,
      "å½Ĵ": 3363,
      "Ġprobeer": 3364,
      "Ġlangs": 3365,
      "Ġprogram": 3366,
      "Ġéļı": 3367,
      "ragen": 3368,
      "Ġç¥": 3369,
      "ilt": 3370,
      "åĴ³": 3371,
      "ial": 3372,
      "les": 3373,
      "æ²Ł": 3374,
      "Ġversch": 3375,
      "oll": 3376,
      "ĠNu": 3377,
      "Ġtaf": 3378,
      "Ġdrug": 3379,
      "è·³": 3380,
      "æ¶¨": 3381,
      "Ġantwoord": 3382,
      "old": 3383,
      "Ġhour": 3384,
      "çĪ·": 3385,
      "Ġcons": 3386,
      "voor": 3387,
      "Ġæ·±": 3388,
      "uwe": 3389,
      "Ġind": 3390,
      "æĬ½": 3391,
      "vers": 3392,
      "Ġklein": 3393,
      "Ġç¡®": 3394,
      "èĴ": 3395,
      "Ġmat": 3396,
      "gende": 3397,
      "cess": 3398,
      "Ġins": 3399,
      "å¥¥": 3400,
      "é¡¶": 3401,
      "Ġleven": 3402,
      "é²ľ": 3403,
      "OO": 3404,
      "Ġkast": 3405,
      "orp": 3406,
      "anden": 3407,
      "Ġcat": 3408,
      "Ġçº": 3409,
      "Ġnaast": 3410,
      "Ġturn": 3411,
      "ä¹İ": 3412,
      "å¸ģ": 3413,
      "ĠHET": 3414,
      "ĠTim": 3415,
      "Now": 3416,
      "åĨ¬": 3417,
      "çĻĮ": 3418,
      "Ġeverybody": 3419,
      "AL": 3420,
      "ç»¿": 3421,
      "ĠGE": 3422,
      "air": 3423,
      "xt": 3424,
      "éĩĬ": 3425,
      "Ġdenkt": 3426,
      "aag": 3427,
      "oc": 3428,
      "Ġmond": 3429,
      "Ġdef": 3430,
      "Ġeerst": 3431,
      "æī©": 3432,
      "Ġjuf": 3433,
      "Ġç»ĵ": 3434,
      "omm": 3435,
      "çºł": 3436,
      "ĠåĶī": 3437,
      "èµĶ": 3438,
      "åĵŃ": 3439,
      "æ¬§": 3440,
      "æģ¶": 3441,
      "aad": 3442,
      "ason": 3443,
      "å·Ŀ": 3444,
      "åı¬": 3445,
      "ijden": 3446,
      "Ġlief": 3447,
      "Ġeind": 3448,
      "ĠWE": 3449,
      "',": 3450,
      "oes": 3451,
      "éĢĲ": 3452,
      "éĻĨ": 3453,
      "èµ¶": 3454,
      "obb": 3455,
      "Ġniemand": 3456,
      "Because": 3457,
      "ĠèĻ½": 3458,
      "æĿ¾": 3459,
      "æĬ±": 3460,
      "oost": 3461,
      "Ġmoment": 3462,
      "Ġunderst": 3463,
      "æĹ¢": 3464,
      "é¢Ī": 3465,
      "what": 3466,
      "è¯¶": 3467,
      "eling": 3468,
      "Ġpas": 3469,
      "æĳĦ": 3470,
      "DE": 3471,
      "ently": 3472,
      "Ġå¤´": 3473,
      "èľ": 3474,
      "Ġanyway": 3475,
      "æĲŀ": 3476,
      "ĠæĢ»": 3477,
      "Ġsmall": 3478,
      "Ġbab": 3479,
      "where": 3480,
      "é½": 3481,
      "str": 3482,
      "cept": 3483,
      "è¿·": 3484,
      "Ġlear": 3485,
      "Ġfin": 3486,
      "åĩī": 3487,
      "éĶ®": 3488,
      "cially": 3489,
      "Ġbelieve": 3490,
      "Ã¨": 3491,
      "åį´": 3492,
      "Ġrust": 3493,
      "Ġwillen": 3494,
      "Re": 3495,
      "sing": 3496,
      "Ġtussen": 3497,
      "ç»ĥ": 3498,
      "Ġtest": 3499,
      "éĺħ": 3500,
      "æı´": 3501,
      "Ġsec": 3502,
      "Ġmusic": 3503,
      "hing": 3504,
      "ĠåŁ": 3505,
      "Ġbook": 3506,
      "Ġalmost": 3507,
      "Ġsub": 3508,
      "enn": 3509,
      "Ġboos": 3510,
      "Ġkop": 3511,
      "Ġgoes": 3512,
      "è½¯": 3513,
      "Ġhop": 3514,
      "Ġå¿ĥ": 3515,
      "Ġlos": 3516,
      "æĿĢ": 3517,
      "å¹º": 3518,
      "Ġrel": 3519,
      "æ³¡": 3520,
      "Ġflu": 3521,
      "IET": 3522,
      "sel": 3523,
      "Ġwit": 3524,
      "Ġinc": 3525,
      "ĠHE": 3526,
      "ife": 3527,
      "Ġauto": 3528,
      "Ġger": 3529,
      "ory": 3530,
      "ics": 3531,
      "Ġvertellen": 3532,
      "Ġgener": 3533,
      "Ġunderstand": 3534,
      "ES": 3535,
      "Ġæľª": 3536,
      "eter": 3537,
      "çº·": 3538,
      "è½®": 3539,
      "ĠAmer": 3540,
      "UR": 3541,
      "ib": 3542,
      "Ġnacht": 3543,
      "ĠEN": 3544,
      "Ġcomput": 3545,
      "izen": 3546,
      "ates": 3547,
      "Ġrecht": 3548,
      "Ġåħ³": 3549,
      "ç«¯": 3550,
      "Ġcalled": 3551,
      "Ġcamp": 3552,
      "teen": 3553,
      "Ġwanted": 3554,
      "Ġgaf": 3555,
      "Ġclass": 3556,
      "ock": 3557,
      "ç»©": 3558,
      "Ġdog": 3559,
      "æ¬ł": 3560,
      "van": 3561,
      "Ġhear": 3562,
      "çĥ¦": 3563,
      "Ġvlie": 3564,
      "åĤħ": 3565,
      "Ġcomm": 3566,
      "ikki": 3567,
      "ukkig": 3568,
      "bye": 3569,
      "ocht": 3570,
      "Ġéķ¿": 3571,
      "Ġwie": 3572,
      "è·Ŀ": 3573,
      "Ġhouden": 3574,
      "Ġreg": 3575,
      "akker": 3576,
      "Ġbeter": 3577,
      "Ġzonder": 3578,
      "Ġdoe": 3579,
      "Ġrep": 3580,
      "èħ¹": 3581,
      "vis": 3582,
      "æīĺ": 3583,
      "Ġlove": 3584,
      "maakt": 3585,
      "Op": 3586,
      "ä¸½": 3587,
      "Ġwind": 3588,
      "ĠIS": 3589,
      "çĹ°": 3590,
      "ations": 3591,
      "Ġagree": 3592,
      "èĽĭ": 3593,
      "Bye": 3594,
      "OOR": 3595,
      "ait": 3596,
      "ç§ĭ": 3597,
      "ä¿ĥ": 3598,
      "Ġdays": 3599,
      "ann": 3600,
      "Ġbru": 3601,
      "Ġide": 3602,
      "æ´ģ": 3603,
      "Ġblijven": 3604,
      "Ġidea": 3605,
      "Ġ.": 3606,
      "ating": 3607,
      "Ġdenk": 3608,
      "Ġmama": 3609,
      "mm": 3610,
      "Ġæı": 3611,
      "ĠHoe": 3612,
      "ĠVoor": 3613,
      "æ¦ľ": 3614,
      "é±": 3615,
      "Ġä¸İ": 3616,
      "Ġdeal": 3617,
      "Ġvindt": 3618,
      "Die": 3619,
      "cies": 3620,
      "ees": 3621,
      "ĠåĢ": 3622,
      "Sure": 3623,
      "Ġgar": 3624,
      "Ġpun": 3625,
      "Ġschou": 3626,
      "ĠJa": 3627,
      "Ġnieuwe": 3628,
      "Ġparents": 3629,
      "å¼¯": 3630,
      "å¨ģ": 3631,
      "é±¼": 3632,
      "å¼ĥ": 3633,
      "Ġlik": 3634,
      "æĮ¥": 3635,
      "ject": 3636,
      "ĠY": 3637,
      "Ġyet": 3638,
      "ĠçĪ": 3639,
      "æ¶²": 3640,
      "Ġlaw": 3641,
      "Ġgenoeg": 3642,
      "Ġzak": 3643,
      "èĤĮ": 3644,
      "éĥģ": 3645,
      "Ġnext": 3646,
      "Ġwerk": 3647,
      "Ġber": 3648,
      "æ·¡": 3649,
      "Ġstud": 3650,
      "ĠæĮī": 3651,
      "Nou": 3652,
      "ä¸°": 3653,
      "Ġgroep": 3654,
      "ball": 3655,
      "Ġ1": 3656,
      "Ġlooking": 3657,
      "çĦ¦": 3658,
      "iken": 3659,
      "Ġtrok": 3660,
      "Ġwife": 3661,
      "çĿ£": 3662,
      "ĠAL": 3663,
      "Ġgets": 3664,
      "ntil": 3665,
      "nie": 3666,
      "off": 3667,
      "Ġless": 3668,
      "åĢį": 3669,
      "ĠJE": 3670,
      "ĠåĪĨ": 3671,
      "Ġåīį": 3672,
      "Daar": 3673,
      "Ġvand": 3674,
      "å¾Ĵ": 3675,
      "Ġçĸ": 3676,
      "ĠçŃ": 3677,
      "æĭĴ": 3678,
      "Ġverg": 3679,
      "ĠRoos": 3680,
      "Ġsaw": 3681,
      "Ġsupposed": 3682,
      "IS": 3683,
      "è¯į": 3684,
      "Ġchang": 3685,
      "Ġrecy": 3686,
      "Ġpubl": 3687,
      "ud": 3688,
      "ç¯": 3689,
      "Ġnam": 3690,
      "Ġopa": 3691,
      "Ġatt": 3692,
      "Ġgezien": 3693,
      "åĪº": 3694,
      "Ġpos": 3695,
      "Ġbew": 3696,
      "è´µ": 3697,
      "Ġbegint": 3698,
      "Ġhoorde": 3699,
      "Ġhoren": 3700,
      "ä½Ľ": 3701,
      "ities": 3702,
      "Ġverdw": 3703,
      "åĬª": 3704,
      "Ġstate": 3705,
      "Ġschree": 3706,
      "ĠVAN": 3707,
      "Ġklaar": 3708,
      "éº»": 3709,
      "Ġzelfs": 3710,
      "kker": 3711,
      "vent": 3712,
      "éŃ": 3713,
      "Ġuntil": 3714,
      "Ġisn": 3715,
      "ijnen": 3716,
      "ĠåĽŀ": 3717,
      "apt": 3718,
      "åĹĳ": 3719,
      "IG": 3720,
      "iÃ«": 3721,
      "Ġä¹Ŀ": 3722,
      "Ġtuin": 3723,
      "Ġmidd": 3724,
      "Ġph": 3725,
      "Ġtook": 3726,
      "åĬ±": 3727,
      "ily": 3728,
      "She": 3729,
      "Ġè¿ĩ": 3730,
      "æī°": 3731,
      "Ġspe": 3732,
      "é©¶": 3733,
      "Ġthuis": 3734,
      "Ġuur": 3735,
      "Ġlicht": 3736,
      "Ġzouden": 3737,
      "Ġjongens": 3738,
      "Er": 3739,
      "èĵ": 3740,
      "Ġå°¤": 3741,
      "Ġarm": 3742,
      "ĠçĻ¾": 3743,
      "ä¹³": 3744,
      "Ġgesch": 3745,
      "Ġbaby": 3746,
      "Ġhart": 3747,
      "ĠPl": 3748,
      "etten": 3749,
      "Ġpaper": 3750,
      "Ġgeeft": 3751,
      "All": 3752,
      "ĠåŃ¦": 3753,
      "Ġaw": 3754,
      "Ġbank": 3755,
      "æĦĪ": 3756,
      "çĽĸ": 3757,
      "ible": 3758,
      "Ġhond": 3759,
      "è¿ª": 3760,
      "è¡¡": 3761,
      "Ġstad": 3762,
      "dem": 3763,
      "Ġå¥³": 3764,
      "ried": 3765,
      "Ġpolit": 3766,
      "Ġbleef": 3767,
      "If": 3768,
      "mar": 3769,
      "Ġlag": 3770,
      "éģŃ": 3771,
      "Ġgingen": 3772,
      "å¼±": 3773,
      "Ġverz": 3774,
      "èīº": 3775,
      "Ġå¼ł": 3776,
      "Ġtafel": 3777,
      "eck": 3778,
      "ately": 3779,
      "Ġvragen": 3780,
      "å²Ĺ": 3781,
      "Ġsuch": 3782,
      "ousand": 3783,
      "Ġmooi": 3784,
      "Ġmovie": 3785,
      "Ġsounds": 3786,
      "Really": 3787,
      "komen": 3788,
      "ara": 3789,
      "Ġkree": 3790,
      "éģį": 3791,
      "vern": 3792,
      "ĠEef": 3793,
      "Ġsaying": 3794,
      "uck": 3795,
      "Ġzon": 3796,
      "çĶ»": 3797,
      "Ġbeh": 3798,
      "Ġå¤ª": 3799,
      "Ġspeel": 3800,
      "ĠæŃ£": 3801,
      "Ġcompany": 3802,
      "ä¸Ŀ": 3803,
      "Ġmed": 3804,
      "Ġcost": 3805,
      "èĢ³": 3806,
      "Ġhaal": 3807,
      "åĩĢ": 3808,
      "Ġrug": 3809,
      "çķ¥": 3810,
      "CHT": 3811,
      "ĠæıĲ": 3812,
      "Ġ,": 3813,
      "Ġgone": 3814,
      "ĠåĪļ": 3815,
      "ĠçĽ´": 3816,
      "Ġproblems": 3817,
      "ĠåİŁ": 3818,
      "alth": 3819,
      "åİĤ": 3820,
      "inkeltje": 3821,
      "ĠNIET": 3822,
      "çĮ«": 3823,
      "Ġkrijgen": 3824,
      "æ¤İ": 3825,
      "oven": 3826,
      "init": 3827,
      "Ġmother": 3828,
      "Ġbla": 3829,
      "å±ģ": 3830,
      "Ġå®¶": 3831,
      "æļĸ": 3832,
      "IL": 3833,
      "gaan": 3834,
      "ines": 3835,
      "è´Ŀ": 3836,
      "çĮª": 3837,
      "Ġgedaan": 3838,
      "Ġkreeg": 3839,
      "Toen": 3840,
      "dig": 3841,
      "Ġthousand": 3842,
      "æľĹ": 3843,
      "ĠIN": 3844,
      "Ġineens": 3845,
      "apen": 3846,
      "Ġkunt": 3847,
      "Ġlaatste": 3848,
      "Ġeigenlijk": 3849,
      "ĠAmeric": 3850,
      "ĠéĤĢ": 3851,
      "Ġæ¹": 3852,
      "Ġgest": 3853,
      "Ġmaakte": 3854,
      "Ġwonderful": 3855,
      "ĠçĶ·": 3856,
      "å®«": 3857,
      "æĹ¦": 3858,
      "ç§Ģ": 3859,
      "éĿ©": 3860,
      "Ġopge": 3861,
      "Ġå®Į": 3862,
      "ĠKar": 3863,
      "Ġpartic": 3864,
      "èĸª": 3865,
      "çĶ²": 3866,
      "æĬĺ": 3867,
      "Ġster": 3868,
      "Ġrent": 3869,
      "ĠDAT": 3870,
      "ĠKlaas": 3871,
      "çģ¸": 3872,
      "æļĳ": 3873,
      "midd": 3874,
      "å´": 3875,
      "Ġéĩį": 3876,
      "Ġviel": 3877,
      "ork": 3878,
      "Ġpakt": 3879,
      "çİī": 3880,
      "Ġmaakt": 3881,
      "Ġworked": 3882,
      "Ġkwamen": 3883,
      "é¼ĵ": 3884,
      "row": 3885,
      "ub": 3886,
      "Ġbought": 3887,
      "Ġgovern": 3888,
      "Ġlachen": 3889,
      "Ġthirty": 3890,
      "Ġdik": 3891,
      "åĨ°": 3892,
      "Ġouders": 3893,
      "gether": 3894,
      "åĪĺ": 3895,
      "Ġtogether": 3896,
      "éĤ®": 3897,
      "Ġstom": 3898,
      "ĠFl": 3899,
      "Ġmakes": 3900,
      "initely": 3901,
      "ĠæĪĲ": 3902,
      "Ġbeneden": 3903,
      "ss": 3904,
      "Ġverst": 3905,
      "è¶£": 3906,
      "èĪ¹": 3907,
      "èĥ¡": 3908,
      "æ»´": 3909,
      "æĲŃ": 3910,
      "Ġç½ĳ": 3911,
      "äºı": 3912,
      "Ġdingen": 3913,
      "æ´¾": 3914,
      "Ġword": 3915,
      "Ġå¹³": 3916,
      "æ¢¦": 3917,
      "ĠChr": 3918,
      "und": 3919,
      "åľ¾": 3920,
      "è®¨": 3921,
      "Ġhelpen": 3922,
      "redit": 3923,
      "Ġéļ¾": 3924,
      "ider": 3925,
      "æĭ¥": 3926,
      "Ã«n": 3927,
      "GEN": 3928,
      "Ġhield": 3929,
      "éĤª": 3930,
      "Ġwhether": 3931,
      "ĠHaar": 3932,
      "ĠåıĹ": 3933,
      "Ġneer": 3934,
      "Ġcoming": 3935,
      "Ġplant": 3936,
      "åĹ½": 3937,
      "\",": 3938,
      "Ġè¯·": 3939,
      "Ġzee": 3940,
      "Ġneus": 3941,
      "Ġsitu": 3942,
      "specially": 3943,
      "like": 3944,
      "sl": 3945,
      "ense": 3946,
      "arge": 3947,
      "Ġbot": 3948,
      "å¹¼": 3949,
      "æĬĳ": 3950,
      "urt": 3951,
      "ĠOP": 3952,
      "æľ¨": 3953,
      "å°Ħ": 3954,
      "Ġlisten": 3955,
      "Ġæīĵ": 3956,
      "Ġtrap": 3957,
      "OU": 3958,
      "ç§ĺ": 3959,
      "Ġgeze": 3960,
      "ĠWaar": 3961,
      "Ġguy": 3962,
      "åı¶": 3963,
      "Ġæ¯ķ": 3964,
      "çģ¾": 3965,
      "Ġlearn": 3966,
      "Ġcredit": 3967,
      "æĬµ": 3968,
      "Ġreason": 3969,
      "Ġnodig": 3970,
      "èī¾": 3971,
      "è£ģ": 3972,
      "och": 3973,
      "ition": 3974,
      "Ġhuil": 3975,
      "DEN": 3976,
      "Ġhar": 3977,
      "åħ¸": 3978,
      "Ġlijkt": 3979,
      "Ġlange": 3980,
      "Ġpast": 3981,
      "Ġfish": 3982,
      "ĠEl": 3983,
      "èĶ": 3984,
      "Ġwomen": 3985,
      "Ġboek": 3986,
      "oort": 3987,
      "ĠJoost": 3988,
      "ake": 3989,
      "oer": 3990,
      "ĠæĹ©": 3991,
      "Ġving": 3992,
      "Ġæŀ": 3993,
      "aks": 3994,
      "æĮĤ": 3995,
      "Ġåı«": 3996,
      "è±Ĩ": 3997,
      "Ġplaces": 3998,
      "çĳ": 3999,
      "ĠæĹ¥": 4000,
      "Ġedu": 4001,
      "Ġcut": 4002,
      "ign": 4003,
      "Ġleek": 4004,
      "Ġç´": 4005,
      "Ġhoort": 4006,
      "Ġgovernment": 4007,
      "br": 4008,
      "Ġé¢Ħ": 4009,
      "åŀĥ": 4010,
      "Ġvolgende": 4011,
      "è¯º": 4012,
      "app": 4013,
      "ience": 4014,
      "Ã³": 4015,
      "elijke": 4016,
      "Ġfound": 4017,
      "éĽ·": 4018,
      "æ¶¦": 4019,
      "Ġmyself": 4020,
      "Ġchange": 4021,
      "Ġlekker": 4022,
      "Ġcouldn": 4023,
      "Ġjury": 4024,
      "Ġaard": 4025,
      "Ġgang": 4026,
      "éĩİ": 4027,
      "åĴ¨": 4028,
      "ĠTom": 4029,
      "Ġwereld": 4030,
      "é¹": 4031,
      "Ġeach": 4032,
      "Ġpakte": 4033,
      "Ġstand": 4034,
      "ç¬¦": 4035,
      "ĠVER": 4036,
      "iness": 4037,
      "éĿĻ": 4038,
      "èĳ£": 4039,
      "let": 4040,
      "ĠéľĢ": 4041,
      "inet": 4042,
      "æĹı": 4043,
      "ĠMijn": 4044,
      "olut": 4045,
      "ç«ŀ": 4046,
      "Ġåį³": 4047,
      "èĦĤ": 4048,
      "ĠPinkeltje": 4049,
      "Ġwachten": 4050,
      "Ġç¥Ŀ": 4051,
      "zaam": 4052,
      "ĠçŃī": 4053,
      "ĠEefie": 4054,
      "!\"": 4055,
      "Kom": 4056,
      "Ġä¿Ŀ": 4057,
      "çĶĺ": 4058,
      "Ġfot": 4059,
      "enten": 4060,
      "ç«ł": 4061,
      "èĪį": 4062,
      "pend": 4063,
      "Ġcars": 4064,
      "Ġvoelde": 4065,
      "erc": 4066,
      "æľ«": 4067,
      "Ġbar": 4068,
      "eef": 4069,
      "Ġcomes": 4070,
      "sy": 4071,
      "Ġtel": 4072,
      "Ġyes": 4073,
      "éĢĶ": 4074,
      "çĥĪ": 4075,
      "Ġkrijgt": 4076,
      "Ġacc": 4077,
      "Ġschreeuw": 4078,
      "Ġgezegd": 4079,
      "mmer": 4080,
      "Ġwalk": 4081,
      "ĠMisschien": 4082,
      "Ġthinking": 4083,
      "Ġyoung": 4084,
      "Ġcomputer": 4085,
      "gelijk": 4086,
      "jor": 4087,
      "Ġå¦": 4088,
      "pect": 4089,
      "IJN": 4090,
      "Ġroom": 4091,
      "zicht": 4092,
      "Ġsk": 4093,
      "Ġpercent": 4094,
      "Ġmonths": 4095,
      "part": 4096,
      "æī¯": 4097,
      "çĽĺ": 4098,
      "åģ¿": 4099,
      "ĠåħĪ": 4100,
      "Ġzoals": 4101,
      "Ġbesl": 4102,
      "ç£¨": 4103,
      "kom": 4104,
      "Ġbor": 4105,
      "å°Ĭ": 4106,
      "Ġpop": 4107,
      "Ġinvol": 4108,
      "Ġfav": 4109,
      "æĬ¢": 4110,
      "ĠST": 4111,
      "est": 4112,
      "ekend": 4113,
      "pla": 4114,
      "uid": 4115,
      "elden": 4116,
      "olf": 4117,
      "ç¼ĸ": 4118,
      "Ġconc": 4119,
      "ijt": 4120,
      "åĬĿ": 4121,
      "å±ĭ": 4122,
      "Ġmevrouw": 4123,
      "èĪĮ": 4124,
      "Ġcheck": 4125,
      "rokken": 4126,
      "LE": 4127,
      "Ġdaught": 4128,
      "æĿĤ": 4129,
      "å·¨": 4130,
      "åĩĮ": 4131,
      "ĠSte": 4132,
      "Ġliggen": 4133,
      "Ġfavor": 4134,
      "ged": 4135,
      "kte": 4136,
      "ä½Ĩ": 4137,
      "Ġcent": 4138,
      "ower": 4139,
      "oorden": 4140,
      "temis": 4141,
      "pens": 4142,
      "ĠåĲĥ": 4143,
      "Ġbenef": 4144,
      "èĹı": 4145,
      "Ġidee": 4146,
      "ennen": 4147,
      "å§ĵ": 4148,
      "ĠTed": 4149,
      "Ġå¤ĸ": 4150,
      "èħ¾": 4151,
      "Ġfunny": 4152,
      "uken": 4153,
      "Ġinf": 4154,
      "ĠDit": 4155,
      "ĠBram": 4156,
      "åĶī": 4157,
      "Ġbasically": 4158,
      "Ġcontro": 4159,
      "Ġwoon": 4160,
      "åħļ": 4161,
      "Ġkat": 4162,
      "Ġkru": 4163,
      "çĽĽ": 4164,
      "éķľ": 4165,
      "Ġgotten": 4166,
      "Ġbusiness": 4167,
      "ingt": 4168,
      "ooi": 4169,
      "Ġworld": 4170,
      "ĠNew": 4171,
      "Ġwerden": 4172,
      "Ġboom": 4173,
      "ĠåĮ»": 4174,
      "Ġnumber": 4175,
      "è·Į": 4176,
      "Ġblijft": 4177,
      "ĠæķĻ": 4178,
      "Ġfriends": 4179,
      "Ġear": 4180,
      "æĥł": 4181,
      "Ġlived": 4182,
      "åĢº": 4183,
      "åīĤ": 4184,
      "èį£": 4185,
      "Ġmajor": 4186,
      "Ġprecies": 4187,
      "Ã¡": 4188,
      "Ġgeld": 4189,
      "rect": 4190,
      "æĭľ": 4191,
      "Ġpraten": 4192,
      "Ġdaarna": 4193,
      "lf": 4194,
      "Ġhealth": 4195,
      "æ¸Ĳ": 4196,
      "çĿĽ": 4197,
      "ç¼´": 4198,
      "aasd": 4199,
      "?\"": 4200,
      "ging": 4201,
      "ĠéĴĪ": 4202,
      "ĠåĿ": 4203,
      "read": 4204,
      "Ġfood": 4205,
      "æī£": 4206,
      "veel": 4207,
      "å¿į": 4208,
      "ĠVer": 4209,
      "uurt": 4210,
      "Ġplaats": 4211,
      "Ġraam": 4212,
      "Ġslaap": 4213,
      "å®¿": 4214,
      "Ġfift": 4215,
      "æĬĵ": 4216,
      "èįĲ": 4217,
      "èİŀ": 4218,
      "Ġbren": 4219,
      "Ġå·¥": 4220,
      "neke": 4221,
      "up": 4222,
      "Ġgraag": 4223,
      "ĠOf": 4224,
      "iste": 4225,
      "Ġligt": 4226,
      "Ġimport": 4227,
      "ual": 4228,
      "Ġnur": 4229,
      "Ġgeven": 4230,
      "æ´ĭ": 4231,
      "èĥľ": 4232,
      "èħĶ": 4233,
      "Ġhoudt": 4234,
      "KEN": 4235,
      "Ġair": 4236,
      "åħµ": 4237,
      "assen": 4238,
      "Ġeng": 4239,
      "veral": 4240,
      "Ġomh": 4241,
      "Ġschools": 4242,
      "Ġpapa": 4243,
      "Ġdenken": 4244,
      "Ġeasy": 4245,
      "Ġpublic": 4246,
      "Ġwakker": 4247,
      "Ġgun": 4248,
      "Ġvre": 4249,
      "itch": 4250,
      "æĿ¨": 4251,
      "æ²ī": 4252,
      "Ġnieuw": 4253,
      "Ġmatter": 4254,
      "Ġninet": 4255,
      "ĠSn": 4256,
      "é¡¿": 4257,
      "Ġexc": 4258,
      "eg": 4259,
      "Ġvar": 4260,
      "Ġret": 4261,
      "èģĺ": 4262,
      "æĽ¿": 4263,
      "Ġexper": 4264,
      "Ġhalen": 4265,
      "ler": 4266,
      "Ġzin": 4267,
      "lex": 4268,
      "Ġverk": 4269,
      "unt": 4270,
      "appen": 4271,
      "å«ģ": 4272,
      "Ġcertainly": 4273,
      "Ġneem": 4274,
      "eed": 4275,
      "Ġäºĭ": 4276,
      "Ġton": 4277,
      "å°ļ": 4278,
      "Ġstonden": 4279,
      "Ġrid": 4280,
      "Ġgehe": 4281,
      "Ġask": 4282,
      "Ġvaak": 4283,
      "epijn": 4284,
      "Ġeducation": 4285,
      "five": 4286,
      "more": 4287,
      "enk": 4288,
      "æĸ¤": 4289,
      "Ġå°½": 4290,
      "zelfde": 4291,
      "huis": 4292,
      "side": 4293,
      "æĹ§": 4294,
      "Ġgemaakt": 4295,
      "Ġgrow": 4296,
      "Ġè¿Ľ": 4297,
      "ä»ª": 4298,
      "åĪ¸": 4299,
      "Ġvier": 4300,
      "Ġrol": 4301,
      "çŃ¹": 4302,
      "Ġschr": 4303,
      "Ġspelen": 4304,
      "ç±į": 4305,
      "Ġå¯¼": 4306,
      "do": 4307,
      "Ġset": 4308,
      "Ġmor": 4309,
      "å®ľ": 4310,
      "éĺ»": 4311,
      "Ġåħ·": 4312,
      "Ġkonden": 4313,
      "Ġå¼ķ": 4314,
      "Ġglim": 4315,
      "Ġavond": 4316,
      "Ġantwoordde": 4317,
      "Al": 4318,
      "ĠQ": 4319,
      "Ġname": 4320,
      "ona": 4321,
      "å¯»": 4322,
      "åİī": 4323,
      "olen": 4324,
      "ikken": 4325,
      "Ġwaarom": 4326,
      "Ġtaxes": 4327,
      "min": 4328,
      "orth": 4329,
      "Ġç¦": 4330,
      "Ġbec": 4331,
      "opt": 4332,
      "ĠJu": 4333,
      "ukt": 4334,
      "çĺ¤": 4335,
      "Ġæ³ķ": 4336,
      "St": 4337,
      "Wow": 4338,
      "less": 4339,
      "éŀ": 4340,
      "Ġè®°": 4341,
      "arte": 4342,
      "å§¨": 4343,
      "Ġçİĭ": 4344,
      "èıĮ": 4345,
      "Ġæİ¥": 4346,
      "Ġolder": 4347,
      "Ġdefinitely": 4348,
      "Ġdaughter": 4349,
      "Ġimportant": 4350,
      "ijs": 4351,
      "Ġweekend": 4352,
      "Ġheet": 4353,
      "Ġvertelde": 4354,
      "Ġoud": 4355,
      "Ġcrime": 4356,
      "Ex": 4357,
      "Ġsur": 4358,
      "Ġbrand": 4359,
      "æĳ©": 4360,
      "Ġpaying": 4361,
      "aak": 4362,
      "Ġtrouw": 4363,
      "Ġaff": 4364,
      "Ġcook": 4365,
      "å²¸": 4366,
      "èĽ®": 4367,
      "bel": 4368,
      "Ġæĺ¨": 4369,
      "æĺł": 4370,
      "Ġson": 4371,
      "Ġgauw": 4372,
      "orry": 4373,
      "ited": 4374,
      "ash": 4375,
      "Ġcra": 4376,
      "Ġcover": 4377,
      "Ġdraaide": 4378,
      "ced": 4379,
      "kw": 4380,
      "Ġhot": 4381,
      "Ġdro": 4382,
      "Ġduw": 4383,
      "æľĿ": 4384,
      "Ġtown": 4385,
      "ama": 4386,
      "inkt": 4387,
      "Ġnemen": 4388,
      "Ġgebru": 4389,
      "Ġduring": 4390,
      "Ġinvolved": 4391,
      "fort": 4392,
      "Ġzucht": 4393,
      "Ġpot": 4394,
      "æİĮ": 4395,
      "è¾Ľ": 4396,
      "reep": 4397,
      "åĶĲ": 4398,
      "èĳĹ": 4399,
      "DER": 4400,
      "baar": 4401,
      "Ġfig": 4402,
      "idden": 4403,
      "ç¡¬": 4404,
      "è±ª": 4405,
      "Ġexpens": 4406,
      "ç¼©": 4407,
      "Ġæ¶ī": 4408,
      "Ġtele": 4409,
      "ĠhÃ¨": 4410,
      "Ġmorgen": 4411,
      "éĽª": 4412,
      "ĠBut": 4413,
      "Ġzodat": 4414,
      "Ġpriv": 4415,
      "Ġclose": 4416,
      "Ġtaking": 4417,
      "HE": 4418,
      "Nu": 4419,
      "Ġkill": 4420,
      "irt": 4421,
      "ĠON": 4422,
      "åĶ±": 4423,
      "ness": 4424,
      "åĲ¹": 4425,
      "åĩŃ": 4426,
      "éĢĥ": 4427,
      "éľĩ": 4428,
      "iving": 4429,
      "ç¢°": 4430,
      "Ġeighty": 4431,
      "Ġsituation": 4432,
      "bo": 4433,
      "rie": 4434,
      "æĹĹ": 4435,
      "çĶ°": 4436,
      "æĸĹ": 4437,
      "ĠHe": 4438,
      "ç½²": 4439,
      "Ġä½ľ": 4440,
      "Ġprof": 4441,
      "Ġelke": 4442,
      "Ġunder": 4443,
      "RA": 4444,
      "Ġhoog": 4445,
      "æĹģ": 4446,
      "å¼Ħ": 4447,
      "Ġgrand": 4448,
      "æ··": 4449,
      "ç¥Ŀ": 4450,
      "æ»ĭ": 4451,
      "Ġnaam": 4452,
      "Ġarmen": 4453,
      "isterde": 4454,
      "ĠArtemis": 4455,
      "çĩ¥": 4456,
      "par": 4457,
      "uz": 4458,
      "Ġwait": 4459,
      "Ġsal": 4460,
      "è·¨": 4461,
      "Ġverw": 4462,
      "æ±Ĺ": 4463,
      "ĠWAT": 4464,
      "Ġneat": 4465,
      "ĠNa": 4466,
      "èĥŀ": 4467,
      "Ġgoede": 4468,
      "Ġzwaa": 4469,
      "spap": 4470,
      "Ġserv": 4471,
      "åħģ": 4472,
      "Ġespecially": 4473,
      "åºĵ": 4474,
      "Ġrather": 4475,
      "Ġåħ±": 4476,
      "Ġzichzelf": 4477,
      "Ġnewspap": 4478,
      "Ġdisc": 4479,
      "Are": 4480,
      "not": 4481,
      "chten": 4482,
      "çº¯": 4483,
      "èĻİ": 4484,
      "é©»": 4485,
      "æ®Ĭ": 4486,
      "Ġdrive": 4487,
      "Ġbud": 4488,
      "ĠæĦı": 4489,
      "ĠChrist": 4490,
      "cc": 4491,
      "Ġzullen": 4492,
      "Ġcle": 4493,
      "urance": 4494,
      "ffrouw": 4495,
      "oenen": 4496,
      "Ġparticular": 4497,
      "Ġtas": 4498,
      "Ġmine": 4499,
      "Ġrad": 4500,
      "æŃī": 4501,
      "ĠNina": 4502,
      "isteren": 4503,
      "æ·»": 4504,
      "Ġå¥ĩ": 4505,
      "ĠæĿİ": 4506,
      "Ġamount": 4507,
      "Zo": 4508,
      "éĹ²": 4509,
      "åĨĮ": 4510,
      "ĠTE": 4511,
      "Ġanymore": 4512,
      "schijn": 4513,
      "IJK": 4514,
      "uest": 4515,
      "Ġkeuken": 4516,
      "Ġomhoog": 4517,
      "door": 4518,
      "Ġing": 4519,
      "Ġdieren": 4520,
      "Ġnorm": 4521,
      "oning": 4522,
      "åĽº": 4523,
      "Ġmoved": 4524,
      "elp": 4525,
      "Ġtoday": 4526,
      "Ġgem": 4527,
      "è°·": 4528,
      "eerd": 4529,
      "Ġplek": 4530,
      "AG": 4531,
      "Did": 4532,
      "rijk": 4533,
      "Ġtante": 4534,
      "Ġdorp": 4535,
      "è¿Ł": 4536,
      "Ġknikt": 4537,
      "ĠDus": 4538,
      "Ġsummer": 4539,
      "Ġtried": 4540,
      "Ġå¸Ĥ": 4541,
      "Ġpaid": 4542,
      "ĠåŃ©": 4543,
      "Ġhaalde": 4544,
      "Ġæ¹ĸ": 4545,
      "Ġfifty": 4546,
      "ĠæĹ¶": 4547,
      "çļĩ": 4548,
      "Ġgh": 4549,
      "Ġdes": 4550,
      "Ġeat": 4551,
      "ĠçĹ": 4552,
      "Ġmaking": 4553,
      "Ġkoningin": 4554,
      "çĵľ": 4555,
      "Goed": 4556,
      "Ġä¸Ķ": 4557,
      "Ġaar": 4558,
      "Ġzom": 4559,
      "Ġcity": 4560,
      "Ġç²": 4561,
      "æĢ¨": 4562,
      "Ġstre": 4563,
      "ilder": 4564,
      "ç¬Ķ": 4565,
      "Ġworks": 4566,
      "erence": 4567,
      "Ġboy": 4568,
      "gels": 4569,
      "Ġtrain": 4570,
      "å¡ŀ": 4571,
      "Ġzette": 4572,
      "Ġconsider": 4573,
      "Ġinsurance": 4574,
      "ries": 4575,
      "Ġacht": 4576,
      "Ġkra": 4577,
      "Ġvijf": 4578,
      "isch": 4579,
      "çº½": 4580,
      "ĠKoen": 4581,
      "Ġbuild": 4582,
      "Ġextra": 4583,
      "Ġçĸ«": 4584,
      "uld": 4585,
      "Ġè¿ŀ": 4586,
      "Ġval": 4587,
      "Ġvle": 4588,
      "å¼¹": 4589,
      "Ġstra": 4590,
      "oordt": 4591,
      "unch": 4592,
      "ĠPepijn": 4593,
      "é»ĺ": 4594,
      "Ġbrief": 4595,
      "æĮĳ": 4596,
      "Ġoutside": 4597,
      "ĠBritt": 4598,
      "Ġverhaal": 4599,
      "é½¿": 4600,
      "ĠJaap": 4601,
      "Have": 4602,
      "solut": 4603,
      "ween": 4604,
      "zel": 4605,
      "Ġèº«": 4606,
      "ĠèŃ¦": 4607,
      "Ġå¢": 4608,
      "Ġaren": 4609,
      "Ġsw": 4610,
      "Ġfair": 4611,
      "Ġhaalt": 4612,
      "eester": 4613,
      "Ġliving": 4614,
      "Ġnothing": 4615,
      "ç©·": 4616,
      "æ»¨": 4617,
      "Ġhoop": 4618,
      "Ġsim": 4619,
      "Ġeff": 4620,
      "ĠæŃ¦": 4621,
      "Ġfull": 4622,
      "Ġsold": 4623,
      "ĠOr": 4624,
      "Ġboot": 4625,
      "die": 4626,
      "Ġside": 4627,
      "Ġkre": 4628,
      "æĿ¯": 4629,
      "omp": 4630,
      "æģĲ": 4631,
      "ç¨į": 4632,
      "ĠæĬ¥": 4633,
      "Ġantwoordt": 4634,
      "ĠAlle": 4635,
      "she": 4636,
      "Ġä¸ľ": 4637,
      "Ġhang": 4638,
      "ĠIs": 4639,
      "iety": 4640,
      "Ġdiep": 4641,
      "Ġmannen": 4642,
      "èİ«": 4643,
      "Ġmooie": 4644,
      "ĠQu": 4645,
      "ail": 4646,
      "cle": 4647,
      "ä½³": 4648,
      "Ġah": 4649,
      "Ġgrou": 4650,
      "è´¥": 4651,
      "ĠNo": 4652,
      "èĥİ": 4653,
      "ĠUn": 4654,
      "Ġæ°ĳ": 4655,
      "ired": 4656,
      "Ġé©¬": 4657,
      "ano": 4658,
      "Ġfif": 4659,
      "è´¸": 4660,
      "oemen": 4661,
      "ract": 4662,
      "Ġmaak": 4663,
      "ments": 4664,
      "Ġquest": 4665,
      "Ġmovies": 4666,
      "hich": 4667,
      "pro": 4668,
      "Ġfil": 4669,
      "ische": 4670,
      "åģ·": 4671,
      "åī©": 4672,
      "æ¸£": 4673,
      "æ´¥": 4674,
      "çĨ¬": 4675,
      "Ġmeisjes": 4676,
      "Ġæ¸ħ": 4677,
      "Ġliepen": 4678,
      "Ġprobeerde": 4679,
      "ivers": 4680,
      "kamer": 4681,
      "yes": 4682,
      "erwijl": 4683,
      "ital": 4684,
      "Ġoften": 4685,
      "Ġsoms": 4686,
      "ĠJack": 4687,
      "èĦī": 4688,
      "ĠåĴĮ": 4689,
      "Jij": 4690,
      "ior": 4691,
      "Ġtien": 4692,
      "Ġkap": 4693,
      "Ġvallen": 4694,
      "Ġstoel": 4695,
      "Ġopp": 4696,
      "è´«": 4697,
      "èħ°": 4698,
      "èħ¿": 4699,
      "Ġenjoyed": 4700,
      "otseling": 4701,
      "Waarom": 4702,
      "Ġrecycl": 4703,
      "Ġfoto": 4704,
      "zij": 4705,
      "Ġèĭ±": 4706,
      "Ġdagen": 4707,
      "åİļ": 4708,
      "èµĮ": 4709,
      "Ġres": 4710,
      "Ġschat": 4711,
      "ĠDaarna": 4712,
      "Ġæ¶Ī": 4713,
      "Ġwitte": 4714,
      "èĵĿ": 4715,
      "Mijn": 4716,
      "dag": 4717,
      "iven": 4718,
      "ogen": 4719,
      "ase": 4720,
      "é¢ľ": 4721,
      "Ġvoorbij": 4722,
      "ertje": 4723,
      "çªĹ": 4724,
      "Ġbetween": 4725,
      "Ġmarried": 4726,
      "Ġsecond": 4727,
      "Ġgroup": 4728,
      "kant": 4729,
      "ĠéŁ©": 4730,
      "Ġtend": 4731,
      "anen": 4732,
      "Ġadem": 4733,
      "Ġgelijk": 4734,
      "Ġzaten": 4735,
      "æĢĴ": 4736,
      "Ġrood": 4737,
      "ĠAkk": 4738,
      "Ġæīĭ": 4739,
      "ĠGod": 4740,
      "Ġmoesten": 4741,
      "Ġverbaasd": 4742,
      "iels": 4743,
      "Ġmind": 4744,
      "å¹ķ": 4745,
      "auwe": 4746,
      "Ġå¹´": 4747,
      "èĭ¥": 4748,
      "Ġseveral": 4749,
      "ĠåŁº": 4750,
      "Ġmorning": 4751,
      "Ġbudget": 4752,
      "cy": 4753,
      "Ġäº¤": 4754,
      "Ġgir": 4755,
      "Ġpen": 4756,
      "Ġalong": 4757,
      "çĽŁ": 4758,
      "Ġrain": 4759,
      "Ġmogen": 4760,
      "éĶģ": 4761,
      "Ġhope": 4762,
      "ĠåĢ¼": 4763,
      "Ġç´¯": 4764,
      "Ġnursing": 4765,
      "Ġahead": 4766,
      "AS": 4767,
      "OL": 4768,
      "Ġ*": 4769,
      "Ġvuur": 4770,
      "Ġpracht": 4771,
      "è§Ī": 4772,
      "Ġå®ī": 4773,
      "ĠLu": 4774,
      "Ġåĳ¨": 4775,
      "Ġrecently": 4776,
      "Ġæµ·": 4777,
      "ĠWillem": 4778,
      "IK": 4779,
      "åıĶ": 4780,
      "etjes": 4781,
      "Ġim": 4782,
      "Ġstee": 4783,
      "æ³Ħ": 4784,
      "Ġschrij": 4785,
      "indelijk": 4786,
      "geb": 4787,
      "geven": 4788,
      "çģ¯": 4789,
      "èĭ¹": 4790,
      "æ£®": 4791,
      "ips": 4792,
      "bor": 4793,
      "gr": 4794,
      "houden": 4795,
      "Ġmot": 4796,
      "Ġvalt": 4797,
      "Ġbev": 4798,
      "çĸı": 4799,
      "Ġsport": 4800,
      "èĥ¸": 4801,
      "åĶ¯": 4802,
      "çħ®": 4803,
      "Ġwrong": 4804,
      "ç¿»": 4805,
      "Ġcase": 4806,
      "Ġvoetb": 4807,
      "Ġhours": 4808,
      "Ġcamping": 4809,
      "éŀĭ": 4810,
      "è¿«": 4811,
      "Ġij": 4812,
      "stic": 4813,
      "åĳĪ": 4814,
      "Ġcap": 4815,
      "Ġç©": 4816,
      "çĽ¾": 4817,
      "urch": 4818,
      "Ġeruit": 4819,
      "æ±¡": 4820,
      "ĠLil": 4821,
      "when": 4822,
      "Ġèĩ³": 4823,
      "Ġwint": 4824,
      "Ġpak": 4825,
      "Ġknikte": 4826,
      "Ġstak": 4827,
      "Ġrende": 4828,
      "çŃĳ": 4829,
      "ĠZE": 4830,
      "ction": 4831,
      "Ġblik": 4832,
      "Ġseven": 4833,
      "Ġadd": 4834,
      "Ġtakes": 4835,
      "Ġrustig": 4836,
      "RE": 4837,
      "å°¾": 4838,
      "ution": 4839,
      "ima": 4840,
      "æ´ª": 4841,
      "Ġwithout": 4842,
      "æįķ": 4843,
      "itting": 4844,
      "Ġsays": 4845,
      "ives": 4846,
      "Ġglimla": 4847,
      "Exactly": 4848,
      "è¹": 4849,
      "erm": 4850,
      "Ġoog": 4851,
      "ided": 4852,
      "Ġkinds": 4853,
      "Ġtalked": 4854,
      "çĺ¦": 4855,
      "ĠæĶ¾": 4856,
      "æ½ľ": 4857,
      "solutely": 4858,
      "Ġgoo": 4859,
      "alif": 4860,
      "åĬ²": 4861,
      "Ġteken": 4862,
      "ä¾§": 4863,
      "Ġdonker": 4864,
      "ienden": 4865,
      "aald": 4866,
      "Ġvlak": 4867,
      "Ġprinses": 4868,
      "ĠHEB": 4869,
      "how": 4870,
      "ja": 4871,
      "annen": 4872,
      "Ġbur": 4873,
      "iew": 4874,
      "otte": 4875,
      "æ»ĳ": 4876,
      "ç¢į": 4877,
      "Ġweeks": 4878,
      "Ġwatching": 4879,
      "even": 4880,
      "wel": 4881,
      "Ġhol": 4882,
      "åĲī": 4883,
      "Ġkijk": 4884,
      "omes": 4885,
      "Ġweather": 4886,
      "ç®±": 4887,
      "Ġneigh": 4888,
      "æįĲ": 4889,
      "Ġvrij": 4890,
      "zak": 4891,
      "Ġoor": 4892,
      "Ġco": 4893,
      "ility": 4894,
      "èĤļ": 4895,
      "Ġverand": 4896,
      "ush": 4897,
      "Ġmust": 4898,
      "Ġmoeil": 4899,
      "Ġsprong": 4900,
      "Ġexpensive": 4901,
      "Ġé»Ħ": 4902,
      "atie": 4903,
      "Ġsell": 4904,
      "Ġstraat": 4905,
      "ĠHIJ": 4906,
      "æĭĶ": 4907,
      "ĠSaar": 4908,
      "Ġæīį": 4909,
      "Ġdrink": 4910,
      "Ġmomp": 4911,
      "Ġminutes": 4912,
      "¹ģ": 4913,
      "Ġè§ī": 4914,
      "ĠçĶµ": 4915,
      "ä¸Ī": 4916,
      "ä¹ı": 4917,
      "Ġbord": 4918,
      "Ġzorgen": 4919,
      "Ġbeste": 4920,
      "Ġforty": 4921,
      "Ġdifference": 4922,
      "ç¹ģ": 4923,
      "Ġho": 4924,
      "Ġoo": 4925,
      "Ġzus": 4926,
      "æĶ»": 4927,
      "æģ©": 4928,
      "ape": 4929,
      "ĠBE": 4930,
      "ĠBl": 4931,
      "Ġgarden": 4932,
      "lijke": 4933,
      "Ġage": 4934,
      "org": 4935,
      "Ġcur": 4936,
      "ĠçĤ": 4937,
      "æĥĬ": 4938,
      "Ġstaart": 4939,
      "Ġleft": 4940,
      "Ġgeluid": 4941,
      "Ġzwarte": 4942,
      "Ġgedacht": 4943,
      "Ġmiss": 4944,
      "nieuw": 4945,
      "ĠKareltje": 4946,
      "Of": 4947,
      "con": 4948,
      "Ġä¸¥": 4949,
      "outh": 4950,
      "Ġæ´": 4951,
      "ç§¦": 4952,
      "ĠNiels": 4953,
      "Ġbring": 4954,
      "Ġvoelt": 4955,
      "Ġtaken": 4956,
      "Ġconcern": 4957,
      "ket": 4958,
      "oris": 4959,
      "Ġtold": 4960,
      "Ġrij": 4961,
      "eeuw": 4962,
      "ĠSp": 4963,
      "åĸī": 4964,
      "Ġyourself": 4965,
      "aurant": 4966,
      "ĠAkkie": 4967,
      "kl": 4968,
      "Ġbill": 4969,
      "Ġricht": 4970,
      "è¾¨": 4971,
      "æ´ŀ": 4972,
      "ĠPuck": 4973,
      "Ġwarm": 4974,
      "æĳ¸": 4975,
      "Ġteam": 4976,
      "Ġå±±": 4977,
      "Ġvandaag": 4978,
      "Ġhout": 4979,
      "Ġknew": 4980,
      "çĸ²": 4981,
      "å§ľ": 4982,
      "achtig": 4983,
      "çķħ": 4984,
      "Ġgevonden": 4985,
      "inner": 4986,
      "Ġpoll": 4987,
      "Ġhappened": 4988,
      "èľľ": 4989,
      "Like": 4990,
      "¦Ĩ": 4991,
      "è¯ļ": 4992,
      "Ġfree": 4993,
      "Ġwear": 4994,
      "aybe": 4995,
      "ĠOm": 4996,
      "å²Ń": 4997,
      "eeld": 4998,
      "Ġgele": 4999,
      "æ¼Ĥ": 5000,
      "Ġcommun": 5001,
      "Ġdikke": 5002,
      "OP": 5003,
      "dden": 5004,
      "ä¸¸": 5005,
      "åĲĲ": 5006,
      "Ġpijn": 5007,
      "Ġfijn": 5008,
      "å¥Ķ": 5009,
      "æ³°": 5010,
      "oef": 5011,
      "Ġä½¿": 5012,
      "uss": 5013,
      "Ġdirect": 5014,
      "æ¤į": 5015,
      "selves": 5016,
      "ĠçĪ±": 5017,
      "Ġhuilen": 5018,
      "zichtig": 5019,
      "Ġfifteen": 5020,
      "Ju": 5021,
      "Ġbea": 5022,
      "Ġlarge": 5023,
      "ä¼Ł": 5024,
      "ieke": 5025,
      "Ġvers": 5026,
      "ĠMAAR": 5027,
      "ĠVOOR": 5028,
      "Ġslapen": 5029,
      "çĮ®": 5030,
      "Ġæķ´": 5031,
      "avid": 5032,
      "æ½®": 5033,
      "Or": 5034,
      "Ġè¶ħ": 5035,
      "Ġjas": 5036,
      "iss": 5037,
      "Ġjud": 5038,
      "ager": 5039,
      "Ġschoot": 5040,
      "Ġmoeilijk": 5041,
      "vl": 5042,
      "ÃŃ": 5043,
      "Ġäºİ": 5044,
      "è¿¹": 5045,
      "orden": 5046,
      "Ġpres": 5047,
      "Ġstru": 5048,
      "èµµ": 5049,
      "Ġrand": 5050,
      "Ġlives": 5051,
      "inkel": 5052,
      "Ġsche": 5053,
      "Ġmuur": 5054,
      "éĵº": 5055,
      "uurde": 5056,
      "Ġtrekt": 5057,
      "Ġrestaurant": 5058,
      "ai": 5059,
      "éĤ¦": 5060,
      "Ġcard": 5061,
      "Ġç«": 5062,
      "åĩ¯": 5063,
      "çĤ¸": 5064,
      "å¦Ĩ": 5065,
      "ä¿Ħ": 5066,
      "though": 5067,
      "æ±ł": 5068,
      "ç¨¿": 5069,
      "ĠRob": 5070,
      "Ġelect": 5071,
      "Ġsloeg": 5072,
      "Ġloc": 5073,
      "Ġreading": 5074,
      "Ġæ±Ł": 5075,
      "ipp": 5076,
      "atuurlijk": 5077,
      "Ġline": 5078,
      "reden": 5079,
      "ised": 5080,
      "ames": 5081,
      "æ³»": 5082,
      "ĠNee": 5083,
      "èİ²": 5084,
      "çŁĽ": 5085,
      "Ġbedoel": 5086,
      "Ġæķ°": 5087,
      "Ġtyp": 5088,
      "anneer": 5089,
      "Ġvreem": 5090,
      "Ġtelevis": 5091,
      "Dit": 5092,
      "RO": 5093,
      "Ġsense": 5094,
      "elukkig": 5095,
      "Ġfiets": 5096,
      "åºŁ": 5097,
      "éªļ": 5098,
      "Ġklinkt": 5099,
      "Ġdruk": 5100,
      "Heb": 5101,
      "èĨľ": 5102,
      "meester": 5103,
      "ace": 5104,
      "ient": 5105,
      "ium": 5106,
      "riet": 5107,
      "inke": 5108,
      "Ġsing": 5109,
      "Ġzoeken": 5110,
      "æłĳ": 5111,
      "Ġang": 5112,
      "ĠBij": 5113,
      "eerde": 5114,
      "Ġshort": 5115,
      "Ġbelang": 5116,
      "Ġmostly": 5117,
      "Ġgebeurd": 5118,
      "ĠæŀĹ": 5119,
      "Ġwish": 5120,
      "ille": 5121,
      "Ġreus": 5122,
      "ieten": 5123,
      "èĲ¨": 5124,
      "Ġinter": 5125,
      "ĠçĻ½": 5126,
      "Ġmiles": 5127,
      "ready": 5128,
      "Ġexperience": 5129,
      "kel": 5130,
      "use": 5131,
      "ĠèĢĥ": 5132,
      "å®½": 5133,
      "rek": 5134,
      "Ġcards": 5135,
      "Ġfee": 5136,
      "çº¸": 5137,
      "ices": 5138,
      "ĠåħĦ": 5139,
      "ctor": 5140,
      "Ġåįİ": 5141,
      "è¢ĭ": 5142,
      "æĳĨ": 5143,
      "Ġluck": 5144,
      "Ġschouders": 5145,
      "çĳŀ": 5146,
      "Ġinform": 5147,
      "Ġä¹ĭ": 5148,
      "Ġæļ": 5149,
      "ä¼¦": 5150,
      "gend": 5151,
      "æĮ½": 5152,
      "ĠNou": 5153,
      "Ġanybody": 5154,
      "Ġguys": 5155,
      "Ġgeworden": 5156,
      "Ġvoeten": 5157,
      "Ġfluisterde": 5158,
      "Ġfavorite": 5159,
      "Ġrecycling": 5160,
      "OET": 5161,
      "kÃ©": 5162,
      "æĨ": 5163,
      "Ġä¾Ŀ": 5164,
      "åĲ´": 5165,
      "Ġdeath": 5166,
      "Ġpie": 5167,
      "Ġalready": 5168,
      "æ¯«": 5169,
      "æ°§": 5170,
      "è¶ĭ": 5171,
      "åĭĩ": 5172,
      "azing": 5173,
      "Ġrunning": 5174,
      "ĠæĻļ": 5175,
      "Ġeindelijk": 5176,
      "Ġprofess": 5177,
      "ader": 5178,
      "just": 5179,
      "Ġding": 5180,
      "Ġvu": 5181,
      "Ġfoot": 5182,
      "Ġander": 5183,
      "åĴ½": 5184,
      "æ³Ľ": 5185,
      "éĽĦ": 5186,
      "ĠOok": 5187,
      "ç²®": 5188,
      "Ġexerc": 5189,
      "Ġvacation": 5190,
      "Ġhoek": 5191,
      "Ġplastic": 5192,
      "Ġzwem": 5193,
      "Ġechte": 5194,
      "ized": 5195,
      "Ġposs": 5196,
      "Ġradio": 5197,
      "AM": 5198,
      "gy": 5199,
      "Ġè¡Į": 5200,
      "ä»Ķ": 5201,
      "Ġveld": 5202,
      "Ġæ»": 5203,
      "åŃĻ": 5204,
      "ĠçĿ": 5205,
      "Ġlim": 5206,
      "ĠZIJN": 5207,
      "æ´Ľ": 5208,
      "æĻĴ": 5209,
      "Ġcho": 5210,
      "osaur": 5211,
      "ational": 5212,
      "Ġimag": 5213,
      "Hier": 5214,
      "IEN": 5215,
      "ery": 5216,
      "stand": 5217,
      "åĳĨ": 5218,
      "Ġinv": 5219,
      "Ġjouw": 5220,
      "æī«": 5221,
      "åģ¶": 5222,
      "æĭĸ": 5223,
      "æĭĺ": 5224,
      "ross": 5225,
      "Ġgosh": 5226,
      "ĠNeder": 5227,
      "ement": 5228,
      "Ġklap": 5229,
      "Ġæİ¨": 5230,
      "eneer": 5231,
      "Ġhuh": 5232,
      "è¿ħ": 5233,
      "æľ±": 5234,
      "Ġapart": 5235,
      "åĪł": 5236,
      "Ġpat": 5237,
      "ĠçŁ¥": 5238,
      "Ġiss": 5239,
      "ilig": 5240,
      "opp": 5241,
      "ĠWas": 5242,
      "æ®ĭ": 5243,
      "Ġlegt": 5244,
      "Ġklonk": 5245,
      "Ġrode": 5246,
      "Ġgehad": 5247,
      "Ġdecided": 5248,
      "Ġdrugs": 5249,
      "AK": 5250,
      "Ga": 5251,
      "wo": 5252,
      "ene": 5253,
      "Ġband": 5254,
      "Ġvij": 5255,
      "Ġjong": 5256,
      "Ġverm": 5257,
      "æĻĵ": 5258,
      "ĠLe": 5259,
      "Ġsuper": 5260,
      "Ġkleren": 5261,
      "ç¼ĺ": 5262,
      "èħº": 5263,
      "åĤ¨": 5264,
      "Ġinterested": 5265,
      "Ġkrijg": 5266,
      "ĠæĽ¾": 5267,
      "Ġkeken": 5268,
      "é²ģ": 5269,
      "Ġpaint": 5270,
      "obbie": 5271,
      "ĠPlano": 5272,
      "bur": 5273,
      "ding": 5274,
      "led": 5275,
      "Ġwed": 5276,
      "èµŀ": 5277,
      "Ġongel": 5278,
      "å¿Ĩ": 5279,
      "this": 5280,
      "akk": 5281,
      "ĠWie": 5282,
      "schap": 5283,
      "Ġbeginnen": 5284,
      "Ġadv": 5285,
      "Ġagainst": 5286,
      "Ġlegde": 5287,
      "Ġpunish": 5288,
      "Ġå¢ŀ": 5289,
      "fde": 5290,
      "Ġlate": 5291,
      "Ġheks": 5292,
      "èµı": 5293,
      "ilde": 5294,
      "ĠHI": 5295,
      "ĠKra": 5296,
      "ĠåĲį": 5297,
      "reek": 5298,
      "weg": 5299,
      "Ġvrienden": 5300,
      "çĨĬ": 5301,
      "ĠæĮº": 5302,
      "Ġcatch": 5303,
      "Ġschouder": 5304,
      "Ġphone": 5305,
      "Ġcontrol": 5306,
      "Ġquestion": 5307,
      "Ġooit": 5308,
      "Misschien": 5309,
      "Ġhor": 5310,
      "Ġsoort": 5311,
      "Ġdepend": 5312,
      "ĠME": 5313,
      "Ġgrot": 5314,
      "uwen": 5315,
      "AND": 5316,
      "å¡Ķ": 5317,
      "Ġslecht": 5318,
      "Ġaardig": 5319,
      "Ġhum": 5320,
      "è¯Ī": 5321,
      "elve": 5322,
      "Ġner": 5323,
      "ĠIt": 5324,
      "Ġæģ": 5325,
      "çĤ¼": 5326,
      "è¾ŀ": 5327,
      "ident": 5328,
      "èºº": 5329,
      "èĪŀ": 5330,
      "Ġmain": 5331,
      "Ġeveryone": 5332,
      "gan": 5333,
      "ette": 5334,
      "Ġzoek": 5335,
      "Ġvi": 5336,
      "Ġemp": 5337,
      "å¾Ħ": 5338,
      "Ġçł": 5339,
      "eak": 5340,
      "Ġrot": 5341,
      "å½»": 5342,
      "Ġerop": 5343,
      "Ġergens": 5344,
      "Ġmogelijk": 5345,
      "Ġnecess": 5346,
      "okken": 5347,
      "Ġass": 5348,
      "Ġgras": 5349,
      "ppy": 5350,
      "Ġgeleden": 5351,
      "Ġleave": 5352,
      "Ġç§°": 5353,
      "Ġkasteel": 5354,
      "ade": 5355,
      "bt": 5356,
      "Ġvro": 5357,
      "ĠIedereen": 5358,
      "Ġpull": 5359,
      "æĥĳ": 5360,
      "æĦ¤": 5361,
      "oppen": 5362,
      "Ġtwelve": 5363,
      "æ¢ħ": 5364,
      "Ġart": 5365,
      "Ġgradu": 5366,
      "ĠAmerican": 5367,
      "Ġbenefits": 5368,
      "ton": 5369,
      "Ġthrow": 5370,
      "Ġnine": 5371,
      "oman": 5372,
      "Ġç®": 5373,
      "Ġenige": 5374,
      "Ġenorm": 5375,
      "çĽĲ": 5376,
      "Ġopnieuw": 5377,
      "æ°ı": 5378,
      "akes": 5379,
      "ĠThe": 5380,
      "heen": 5381,
      "ĠPiet": 5382,
      "Ġexactly": 5383,
      "Ġgesp": 5384,
      "ĠJanneke": 5385,
      "ric": 5386,
      "å®¾": 5387,
      "stig": 5388,
      "Ġrat": 5389,
      "urop": 5390,
      "imin": 5391,
      "Ġallow": 5392,
      "Ġprodu": 5393,
      "èħ»": 5394,
      "efoon": 5395,
      "avond": 5396,
      "å¡«": 5397,
      "Ġbegonnen": 5398,
      "Ġruim": 5399,
      "Ġshows": 5400,
      "ĠNederland": 5401,
      "dy": 5402,
      "ues": 5403,
      "ĠOh": 5404,
      "ĠèĤ¯": 5405,
      "å®ħ": 5406,
      "Ġdeg": 5407,
      "æĸĳ": 5408,
      "ä¼¯": 5409,
      "Ġene": 5410,
      "leur": 5411,
      "Ġbek": 5412,
      "å¿§": 5413,
      "ĠHol": 5414,
      "aul": 5415,
      "ĠBen": 5416,
      "Ġvoordat": 5417,
      "Ġåį´": 5418,
      "Ġtweed": 5419,
      "Ġbesch": 5420,
      "Ġç§ĳ": 5421,
      "è¸ª": 5422,
      "èĴĻ": 5423,
      "Ġbooks": 5424,
      "Ġliked": 5425,
      "Ġbrengen": 5426,
      "Just": 5427,
      "When": 5428,
      "wee": 5429,
      "weer": 5430,
      "werk": 5431,
      "Ġdier": 5432,
      "reken": 5433,
      "èĢĹ": 5434,
      "Ġent": 5435,
      "æĢª": 5436,
      "Ġä½ķ": 5437,
      "Ġschilder": 5438,
      "Ġworth": 5439,
      "istert": 5440,
      "Ġdiffic": 5441,
      "rible": 5442,
      "Ġgehoord": 5443,
      "Ġbroer": 5444,
      "Ġvergeten": 5445,
      "Ġservice": 5446,
      "now": 5447,
      "to": 5448,
      "ude": 5449,
      "Ġgas": 5450,
      "chn": 5451,
      "çĶľ": 5452,
      "ĠæĲ": 5453,
      "åĴ¸": 5454,
      "æ¯ģ": 5455,
      "é¢Ĺ": 5456,
      "Ġjuffrouw": 5457,
      "è¢Ń": 5458,
      "éĶħ": 5459,
      "æ¨ª": 5460,
      "Ġregular": 5461,
      "Ġmiddle": 5462,
      "éī": 5463,
      "Ġtrou": 5464,
      "Ġmaan": 5465,
      "Ġcir": 5466,
      "Ġfeest": 5467,
      "ĠçĲ": 5468,
      "ç§Ĵ": 5469,
      "ison": 5470,
      "éĥĳ": 5471,
      "ĠNiet": 5472,
      "Ġsoc": 5473,
      "Ġprote": 5474,
      "Ġterms": 5475,
      "æ¼«": 5476,
      "Ġcases": 5477,
      "Ġneighbor": 5478,
      "éī´": 5479,
      "Kijk": 5480,
      "å®µ": 5481,
      "Ġanderen": 5482,
      "åĴĸ": 5483,
      "ĠDavid": 5484,
      "è¾£": 5485,
      "Ġä½ĵ": 5486,
      "Ġmove": 5487,
      "Ġsomewhere": 5488,
      "cks": 5489,
      "Ġwilt": 5490,
      "å¨¶": 5491,
      "ĠåķĨ": 5492,
      "Ġneeds": 5493,
      "Ġlachte": 5494,
      "éŃı": 5495,
      "Ġç¦»": 5496,
      "Ġè°ĥ": 5497,
      "ĠDIE": 5498,
      "æ±ĩ": 5499,
      "ĠAlex": 5500,
      "ç³Ł": 5501,
      "Ġlots": 5502,
      "çıį": 5503,
      "Ġtrots": 5504,
      "Ġsnap": 5505,
      "onderd": 5506,
      "æ¢³": 5507,
      "Ġimagine": 5508,
      "Niet": 5509,
      "aff": 5510,
      "nis": 5511,
      "ses": 5512,
      "Ġéĺ²": 5513,
      "åį·": 5514,
      "orre": 5515,
      "asion": 5516,
      "å¿½": 5517,
      "oest": 5518,
      "oeien": 5519,
      "ĠTerwijl": 5520,
      "ĠSven": 5521,
      "ĠNout": 5522,
      "Ġmach": 5523,
      "Ġkwaad": 5524,
      "æħ§": 5525,
      "Ġlangzaam": 5526,
      "Ġæĥħ": 5527,
      "Ġsubject": 5528,
      "Ġneemt": 5529,
      "Ġclean": 5530,
      "AD": 5531,
      "Ġtent": 5532,
      "Ġdress": 5533,
      "Ġob": 5534,
      "Ġmidden": 5535,
      "arily": 5536,
      "Ġball": 5537,
      "olog": 5538,
      "ĠJij": 5539,
      "ĠKat": 5540,
      "æĲº": 5541,
      "Ġslaat": 5542,
      "Ġtopic": 5543,
      "This": 5544,
      "é½Ĳ": 5545,
      "ç¯®": 5546,
      "aliforn": 5547,
      "Ġtweede": 5548,
      "Dus": 5549,
      "See": 5550,
      "vy": 5551,
      "Ġ2": 5552,
      "Ġdad": 5553,
      "Ġdoos": 5554,
      "Ġpad": 5555,
      "ention": 5556,
      "Ġerin": 5557,
      "æĴĳ": 5558,
      "èį·": 5559,
      "Ġready": 5560,
      "èĨı": 5561,
      "Ġgeheim": 5562,
      "conom": 5563,
      "OG": 5564,
      "Voor": 5565,
      "Where": 5566,
      "val": 5567,
      "Ġocc": 5568,
      "Ġbag": 5569,
      "åķ¡": 5570,
      "aya": 5571,
      "chtend": 5572,
      "ĠCaliforn": 5573,
      "Ġclub": 5574,
      "iefd": 5575,
      "Ġsupport": 5576,
      "bbel": 5577,
      "Ġminuten": 5578,
      "Ġsociety": 5579,
      "hand": 5580,
      "oeder": 5581,
      "Ġä¸ĵ": 5582,
      "ĠUm": 5583,
      "Ġhit": 5584,
      "Ġwoorden": 5585,
      "Ġoom": 5586,
      "Ġsenten": 5587,
      "Ġfan": 5588,
      "æīİ": 5589,
      "æ³Į": 5590,
      "ĠEven": 5591,
      "çĪ¹": 5592,
      "Ġforth": 5593,
      "Ġmocht": 5594,
      "ĠBart": 5595,
      "ĠNie": 5596,
      "isten": 5597,
      "æ®ĸ": 5598,
      "Ġå¿«": 5599,
      "Ġæ°Ķ": 5600,
      "Ġpolitie": 5601,
      "Ġnieuws": 5602,
      "Not": 5603,
      "dde": 5604,
      "mas": 5605,
      "Ġè®¤": 5606,
      "inde": 5607,
      "å®ĩ": 5608,
      "Ġzetten": 5609,
      "Ġpakken": 5610,
      "ä¼¸": 5611,
      "igd": 5612,
      "Weet": 5613,
      "gelopen": 5614,
      "Ġå¾Ģ": 5615,
      "Ġgelukkig": 5616,
      "Ġmagaz": 5617,
      "netje": 5618,
      "Ġéĺ¿": 5619,
      "Ġwoman": 5620,
      "arm": 5621,
      "Ġbaas": 5622,
      "Ġeconom": 5623,
      "åĽĬ": 5624,
      "åĸĤ": 5625,
      "æ¡Į": 5626,
      "eert": 5627,
      "Ġboer": 5628,
      "Ġontde": 5629,
      "Ġbase": 5630,
      "çŀħ": 5631,
      "Ġtelefoon": 5632,
      "Ġdifficult": 5633,
      "AP": 5634,
      "OK": 5635,
      "rr": 5636,
      "è¦Ĩ": 5637,
      "Ġè½¦": 5638,
      "åľĨ": 5639,
      "å¥ĭ": 5640,
      "èĢĲ": 5641,
      "éĻ·": 5642,
      "èµł": 5643,
      "Ġrennen": 5644,
      "Ġopt": 5645,
      "kende": 5646,
      "ĠSan": 5647,
      "ĠSch": 5648,
      "ĠZsa": 5649,
      "Ġmeest": 5650,
      "Ġsev": 5651,
      "Ġwinter": 5652,
      "gl": 5653,
      "é¥¿": 5654,
      "ative": 5655,
      "ark": 5656,
      "Ġgame": 5657,
      "æĹ¬": 5658,
      "ä¼ı": 5659,
      "Ġçª": 5660,
      "æ²¿": 5661,
      "è¾ħ": 5662,
      "åĢ¾": 5663,
      "çīµ": 5664,
      "ĠSas": 5665,
      "Ġzoon": 5666,
      "arton": 5667,
      "çķª": 5668,
      "ENT": 5669,
      "éĶ»": 5670,
      "å¨±": 5671,
      "ĠCalifornia": 5672,
      "Wie": 5673,
      "Ġochtend": 5674,
      "Ġsend": 5675,
      "Ġbere": 5676,
      "Ġleren": 5677,
      "ality": 5678,
      "Ġstick": 5679,
      "kens": 5680,
      "ĠAAN": 5681,
      "okk": 5682,
      "çĥĤ": 5683,
      "ĠGe": 5684,
      "Ġmuz": 5685,
      "ç¥Ľ": 5686,
      "Ġblauwe": 5687,
      "é¥±": 5688,
      "Ġbegin": 5689,
      "æĲ¬": 5690,
      "Ġgeval": 5691,
      "Ġzomaar": 5692,
      "Met": 5693,
      "bert": 5694,
      "ron": 5695,
      "ä¸¢": 5696,
      "Ġwoord": 5697,
      "æĺĮ": 5698,
      "onge": 5699,
      "æĹº": 5700,
      "Ġfe": 5701,
      "ley": 5702,
      "èµĸ": 5703,
      "Ġreis": 5704,
      "åĵĦ": 5705,
      "éĺµ": 5706,
      "ĠER": 5707,
      "ĠTe": 5708,
      "ĠAan": 5709,
      "åĿ¦": 5710,
      "Ġsocial": 5711,
      "çħ²": 5712,
      "Ġcomplet": 5713,
      "åłµ": 5714,
      "çĺĢ": 5715,
      "Ġwijst": 5716,
      "Ġæ°´": 5717,
      "ĠTeddie": 5718,
      "Ġlocal": 5719,
      "Ġgouden": 5720,
      "Ġvote": 5721,
      "Ġæ¡": 5722,
      "æĿ°": 5723,
      "Ġçĥ": 5724,
      "Ġstorm": 5725,
      "deur": 5726,
      "è°ħ": 5727,
      "Ġgrij": 5728,
      "ĠCar": 5729,
      "ç¥ĸ": 5730,
      "Ġåĵ¥": 5731,
      "Ġstraks": 5732,
      "çŀ§": 5733,
      "Ġbreak": 5734,
      "VEN": 5735,
      "loy": 5736,
      "Ġhead": 5737,
      "Ġhobb": 5738,
      "Ġmel": 5739,
      "Ġvak": 5740,
      "Ġpass": 5741,
      "ammer": 5742,
      "Ġjuist": 5743,
      "çĲ³": 5744,
      "ĠSim": 5745,
      "Ġprop": 5746,
      "Ġcans": 5747,
      "etting": 5748,
      "çĭĤ": 5749,
      "Ġglad": 5750,
      "Ġchanged": 5751,
      "ĠçĤ¹": 5752,
      "ID": 5753,
      "JE": 5754,
      "ax": 5755,
      "hy": 5756,
      "ĠéĿ¢": 5757,
      "ä¹Į": 5758,
      "åĲ¨": 5759,
      "è¯Ĺ": 5760,
      "Ġkip": 5761,
      "ĠIsa": 5762,
      "èĤ©": 5763,
      "ĠWell": 5764,
      "ĠWill": 5765,
      "Ġnear": 5766,
      "åĿ¡": 5767,
      "Ġaller": 5768,
      "Ġzoveel": 5769,
      "èĪ±": 5770,
      "éªĳ": 5771,
      "æ»ŀ": 5772,
      "é¸¿": 5773,
      "Ġvingers": 5774,
      "Ġpunishment": 5775,
      "gde": 5776,
      "èļ": 5777,
      "èĿ": 5778,
      "ä¸¹": 5779,
      "æĪĴ": 5780,
      "Ġzagen": 5781,
      "æĿŃ": 5782,
      "Ġcold": 5783,
      "uts": 5784,
      "æ³ª": 5785,
      "æŀª": 5786,
      "å½¼": 5787,
      "æĭ¼": 5788,
      "æ¬²": 5789,
      "ĠZO": 5790,
      "Ġareas": 5791,
      "lagen": 5792,
      "å©´": 5793,
      "Ġmanier": 5794,
      "inty": 5795,
      "Ġbedacht": 5796,
      "Ġåģĩ": 5797,
      "Ġschudde": 5798,
      "Ġearly": 5799,
      "lu": 5800,
      "Ġè¿Ĳ": 5801,
      "Ġä¸ĸ": 5802,
      "ĠæĹ¢": 5803,
      "Ġdw": 5804,
      "Ġdou": 5805,
      "åŃ¤": 5806,
      "å¸ħ": 5807,
      "è¡°": 5808,
      "ida": 5809,
      "æĭŁ": 5810,
      "æ¸´": 5811,
      "gev": 5812,
      "Ġbuik": 5813,
      "æĳĬ": 5814,
      "Ġunless": 5815,
      "Ġverdriet": 5816,
      "Ġemploy": 5817,
      "Ġtrouble": 5818,
      "maar": 5819,
      "Ġwinkel": 5820,
      "æĪļ": 5821,
      "Ġwees": 5822,
      "Ġstor": 5823,
      "rap": 5824,
      "Ġåı£": 5825,
      "ĠZij": 5826,
      "æĴŀ": 5827,
      "Ġvoorzichtig": 5828,
      "åĿĽ": 5829,
      "ĠGelukkig": 5830,
      "Ġbenen": 5831,
      "Ġlooked": 5832,
      "Ġstarting": 5833,
      "æ¢¯": 5834,
      "Ġcompanies": 5835,
      "Ġliever": 5836,
      "Ġincome": 5837,
      "Ġawful": 5838,
      "Ġfigure": 5839,
      "Ġexercise": 5840,
      "VER": 5841,
      "Ġhomes": 5842,
      "Ġwol": 5843,
      "ator": 5844,
      "esse": 5845,
      "Ġraar": 5846,
      "Ġopeens": 5847,
      "very": 5848,
      "èĤª": 5849,
      "ĠHier": 5850,
      "è°±": 5851,
      "ĠMe": 5852,
      "ĠEurop": 5853,
      "ĠSP": 5854,
      "ĠGr": 5855,
      "æŁĶ": 5856,
      "Ġfront": 5857,
      "ulp": 5858,
      "ç¯ĩ": 5859,
      "Ġafford": 5860,
      "nel": 5861,
      "vig": 5862,
      "Ġ...'": 5863,
      "Ġtough": 5864,
      "Ġweren": 5865,
      "Ġsign": 5866,
      "Ġimm": 5867,
      "ç»ķ": 5868,
      "igin": 5869,
      "æ²Ī": 5870,
      "ĠAnt": 5871,
      "apa": 5872,
      "ĠNona": 5873,
      "èĥĢ": 5874,
      "Ġproberen": 5875,
      "Ġgeweld": 5876,
      "Ġgrew": 5877,
      "çĩĥ": 5878,
      "Ġzachtjes": 5879,
      "GE": 5880,
      "One": 5881,
      "RR": 5882,
      "UL": 5883,
      "dra": 5884,
      "Ġç»§": 5885,
      "Ġmer": 5886,
      "å®Ĺ": 5887,
      "éĹ·": 5888,
      "ĠNikki": 5889,
      "outer": 5890,
      "æı¡": 5891,
      "ĠJoh": 5892,
      "æ¡ĥ": 5893,
      "osp": 5894,
      "illen": 5895,
      "Ġbrood": 5896,
      "Ġrealize": 5897,
      "Ġå¾®": 5898,
      "Ġgave": 5899,
      "EEF": 5900,
      "Ġinstead": 5901,
      "Ġç²¾": 5902,
      "zie": 5903,
      "erel": 5904,
      "Ġziek": 5905,
      "åĪĢ": 5906,
      "iting": 5907,
      "éĹª": 5908,
      "èµ´": 5909,
      "ijnt": 5910,
      "ĠDAN": 5911,
      "ides": 5912,
      "idelijk": 5913,
      "ĠMeester": 5914,
      "Ġeraan": 5915,
      "ĠSuz": 5916,
      "æĴ¤": 5917,
      "ĠDeze": 5918,
      "Ġæĸĩ": 5919,
      "Ġå¸¦": 5920,
      "Ġgevaar": 5921,
      "ĠIneens": 5922,
      "Ġhappens": 5923,
      "ĠYork": 5924,
      "ĠStef": 5925,
      "Ġvrolijk": 5926,
      "OT": 5927,
      "Wel": 5928,
      "sc": 5929,
      "æ§": 5930,
      "Ġwand": 5931,
      "æī¶": 5932,
      "æµĻ": 5933,
      "ĠSo": 5934,
      "Ġorgan": 5935,
      "Ġexcept": 5936,
      "Ġexpect": 5937,
      "Ġusing": 5938,
      "çĮľ": 5939,
      "Ġverliefd": 5940,
      "Ġstukje": 5941,
      "CK": 5942,
      "ipt": 5943,
      "ĠéĻĪ": 5944,
      "Ġdroom": 5945,
      "å°ĸ": 5946,
      "åįĳ": 5947,
      "aarde": 5948,
      "Ġç¤": 5949,
      "leine": 5950,
      "ä¿Ĺ": 5951,
      "Ġmeiden": 5952,
      "ella": 5953,
      "ĠEls": 5954,
      "ĠTHE": 5955,
      "Ġæī¾": 5956,
      "Ġå¼º": 5957,
      "æ¢ģ": 5958,
      "ĠFlor": 5959,
      "AAN": 5960,
      "IM": 5961,
      "Wil": 5962,
      "lo": 5963,
      "oken": 5964,
      "ward": 5965,
      "Ġgoud": 5966,
      "éĹº": 5967,
      "Ġresp": 5968,
      "æŃª": 5969,
      "æ¸ł": 5970,
      "ola": 5971,
      "æĤ²": 5972,
      "åĿĢ": 5973,
      "æĽĿ": 5974,
      "Ġåįł": 5975,
      "ĠPr": 5976,
      "Ġthemselves": 5977,
      "Ġçľģ": 5978,
      "kwam": 5979,
      "OS": 5980,
      "Ġå§": 5981,
      "Ġwoed": 5982,
      "Ġsister": 5983,
      "å¤¸": 5984,
      "è¯¦": 5985,
      "Ġbracht": 5986,
      "éĤĵ": 5987,
      "Ġfelt": 5988,
      "oms": 5989,
      "Ġonge": 5990,
      "Ġdochter": 5991,
      "ĠDag": 5992,
      "Ġref": 5993,
      "åĸ·": 5994,
      "ĠåĴĭ": 5995,
      "iÃ«r": 5996,
      "Ġbott": 5997,
      "ĠWaarom": 5998,
      "ĠChristmas": 5999,
      "Ġcapital": 6000,
      "Good": 6001,
      "gang": 6002,
      "rent": 6003,
      "ĠéĹ®": 6004,
      "ared": 6005,
      "Ġheer": 6006,
      "èĤ¢": 6007,
      "ids": 6008,
      "ĠTara": 6009,
      "ĠBe": 6010,
      "Ġorigin": 6011,
      "Ġworry": 6012,
      "okay": 6013,
      "ĠKom": 6014,
      "Ġspent": 6015,
      "å¢Ļ": 6016,
      "ĠRe": 6017,
      "Ġmens": 6018,
      "velop": 6019,
      "ĠThies": 6020,
      "Ġharder": 6021,
      "ĠButler": 6022,
      "Ġfairly": 6023,
      "HÃ©": 6024,
      "moet": 6025,
      "åħ¼": 6026,
      "å°Ŀ": 6027,
      "Ġkoff": 6028,
      "leg": 6029,
      "æĬ«": 6030,
      "eap": 6031,
      "Ġopzij": 6032,
      "Ġervan": 6033,
      "Ġå¤ı": 6034,
      "ĠRobbie": 6035,
      "æļĹ": 6036,
      "Ġbegrij": 6037,
      "Ġverteld": 6038,
      "Ġneeded": 6039,
      "Ġsixty": 6040,
      "Ġautom": 6041,
      "Ġveilig": 6042,
      "Ġvliegt": 6043,
      "komt": 6044,
      "Ġeffect": 6045,
      "Ġsteekt": 6046,
      "Ġpollution": 6047,
      "Ġseventy": 6048,
      "ming": 6049,
      "Ġdin": 6050,
      "Ġåĺ": 6051,
      "Ġport": 6052,
      "å¾ª": 6053,
      "åŃĶ": 6054,
      "æ³ī": 6055,
      "å§Ĩ": 6056,
      "Ġschoon": 6057,
      "Ġmod": 6058,
      "Ġmoed": 6059,
      "Ġsoon": 6060,
      "Ġexp": 6061,
      "Ġwerken": 6062,
      "Ġgekomen": 6063,
      "çĵ¶": 6064,
      "iversity": 6065,
      "Ġconcerned": 6066,
      "uig": 6067,
      "Ġéĥ¨": 6068,
      "Ġnorth": 6069,
      "eeft": 6070,
      "ĠWant": 6071,
      "ĠBecause": 6072,
      "Ġoren": 6073,
      "aste": 6074,
      "Ġchar": 6075,
      "ĠRE": 6076,
      "Ġbijz": 6077,
      "sche": 6078,
      "Ġklim": 6079,
      "Ġroepen": 6080,
      "Ġpark": 6081,
      "strijd": 6082,
      "Ġbelangrijk": 6083,
      "ĠçĿ¡": 6084,
      "cing": 6085,
      "Ġder": 6086,
      "Ġdinner": 6087,
      "Ġsol": 6088,
      "Ġfather": 6089,
      "Ġzeven": 6090,
      "Ġstore": 6091,
      "Ġhetzelfde": 6092,
      "ĠMir": 6093,
      "Ġgolf": 6094,
      "inds": 6095,
      "ĠKim": 6096,
      "Ġlevel": 6097,
      "Ġwants": 6098,
      "iful": 6099,
      "Ġåķ¥": 6100,
      "eful": 6101,
      "Ġlooks": 6102,
      "èı²": 6103,
      "Ġåĩł": 6104,
      "acy": 6105,
      "Ġverschr": 6106,
      "Ġå¦¹": 6107,
      "Ġgrowing": 6108,
      "Ġçªģ": 6109,
      "On": 6110,
      "èª": 6111,
      "Ġtanden": 6112,
      "Ġminder": 6113,
      "reven": 6114,
      "ston": 6115,
      "Ġpraat": 6116,
      "Ġtover": 6117,
      "å·¡": 6118,
      "æĤĶ": 6119,
      "ĠNog": 6120,
      "ĠOn": 6121,
      "ump": 6122,
      "Ġcloth": 6123,
      "ĠDaarom": 6124,
      "Ġkept": 6125,
      "Ġleeg": 6126,
      "ĠæµĻ": 6127,
      "Ġæĭ¿": 6128,
      "Ġninety": 6129,
      "hood": 6130,
      "mat": 6131,
      "Ġhate": 6132,
      "Ġsorry": 6133,
      "elle": 6134,
      "Ġzingen": 6135,
      "Ġnoem": 6136,
      "Ġpan": 6137,
      "Ġpet": 6138,
      "Ġbewe": 6139,
      "Ġbeeld": 6140,
      "Ġroll": 6141,
      "elling": 6142,
      "æµ®": 6143,
      "ĠTot": 6144,
      "ĠNet": 6145,
      "ika": 6146,
      "Ġoveral": 6147,
      "Ġæ²³": 6148,
      "reng": 6149,
      "åĤ¬": 6150,
      "æ¼ı": 6151,
      "ĠæĶ¯": 6152,
      "Ġstopte": 6153,
      "Ġeasier": 6154,
      "èľĤ": 6155,
      "Ġchanges": 6156,
      "Ġnewspaper": 6157,
      "ĠQuinty": 6158,
      "Ġinformation": 6159,
      "LIE": 6160,
      "bers": 6161,
      "ĠèĬ±": 6162,
      "Ġhers": 6163,
      "Ġhold": 6164,
      "Ġhappy": 6165,
      "Ġbeer": 6166,
      "æ¬º": 6167,
      "iced": 6168,
      "llen": 6169,
      "Ġåľ°": 6170,
      "èĥĨ": 6171,
      "Ġlezen": 6172,
      "Ġgevoel": 6173,
      "Ġschudt": 6174,
      "Ġwonen": 6175,
      "Ġmuziek": 6176,
      "Om": 6177,
      "iod": 6178,
      "uus": 6179,
      "zy": 6180,
      "Ġtouw": 6181,
      "ana": 6182,
      "Ġmist": 6183,
      "Ġzen": 6184,
      "Ġkort": 6185,
      "aars": 6186,
      "Ġfine": 6187,
      "å¥ı": 6188,
      "éĢĬ": 6189,
      "Ġstory": 6190,
      "Ġoper": 6191,
      "deren": 6192,
      "æĮ¯": 6193,
      "åĸĬ": 6194,
      "Ġspel": 6195,
      "ĠVol": 6196,
      "ĠGer": 6197,
      "ĠåĲĳ": 6198,
      "Ġtranen": 6199,
      "elijks": 6200,
      "Ġhoeft": 6201,
      "Ġvertelt": 6202,
      "åĭ¤": 6203,
      "marijn": 6204,
      "ĠçĹħ": 6205,
      "Ġrichting": 6206,
      "Ġdom": 6207,
      "Ġlink": 6208,
      "Ġfast": 6209,
      "æĥľ": 6210,
      "rob": 6211,
      "éĥŃ": 6212,
      "Ġå¤į": 6213,
      "Ġputting": 6214,
      "Ġtijdje": 6215,
      "Ġtrees": 6216,
      "Ġspringt": 6217,
      "Ġteachers": 6218,
      "Ġijs": 6219,
      "ĠSuzan": 6220,
      "for": 6221,
      "vreden": 6222,
      "Ġä»ħ": 6223,
      "Ġvres": 6224,
      "Ġpower": 6225,
      "utiful": 6226,
      "ä¿±": 6227,
      "entje": 6228,
      "Ġtechn": 6229,
      "ĠSCH": 6230,
      "Ġschoenen": 6231,
      "ĠKaya": 6232,
      "ç³Ĭ": 6233,
      "å¢ĵ": 6234,
      "rought": 6235,
      "Ġgoodness": 6236,
      "Ġkans": 6237,
      "ĠåĨħ": 6238,
      "Ġzwaar": 6239,
      "æ¥ł": 6240,
      "AAT": 6241,
      "Ġpaard": 6242,
      "Ġspecial": 6243,
      "Ġvinger": 6244,
      "US": 6245,
      "beeld": 6246,
      "zo": 6247,
      "zer": 6248,
      "Ġvor": 6249,
      "Ġlately": 6250,
      "ese": 6251,
      "iem": 6252,
      "å¯Ħ": 6253,
      "åĨ¯": 6254,
      "ĠDave": 6255,
      "è´¡": 6256,
      "å±Ī": 6257,
      "Ġans": 6258,
      "Ġchance": 6259,
      "æ·ĺ": 6260,
      "æ£ĭ": 6261,
      "Ġbloed": 6262,
      "ĠæĤ£": 6263,
      "éĨī": 6264,
      "Ġkrant": 6265,
      "iously": 6266,
      "Ġverdwenen": 6267,
      "middag": 6268,
      "Ġfishing": 6269,
      "Jullie": 6270,
      "ĠçĲĨ": 6271,
      "ZZ": 6272,
      "cte": 6273,
      "ures": 6274,
      "Ġhea": 6275,
      "Ġuw": 6276,
      "Ġpoot": 6277,
      "å·¢": 6278,
      "Ġalthough": 6279,
      "ĠDoor": 6280,
      "æ³³": 6281,
      "ç¾Ĭ": 6282,
      "Ġmail": 6283,
      "Ġå¾Ĺ": 6284,
      "Ġluid": 6285,
      "Ġåĩı": 6286,
      "Ġrecord": 6287,
      "Ġlonger": 6288,
      "exic": 6289,
      "èĸĦ": 6290,
      "ĠAnna": 6291,
      "Ġç¤¾": 6292,
      "bed": 6293,
      "iver": 6294,
      "Ġâ": 6295,
      "Ġdist": 6296,
      "Ġov": 6297,
      "Ġzes": 6298,
      "regen": 6299,
      "è®¼": 6300,
      "Ġhaast": 6301,
      "Ġhek": 6302,
      "derd": 6303,
      "ĠMOET": 6304,
      "ä¾¦": 6305,
      "Ġmeter": 6306,
      "Ġabsolutely": 6307,
      "Ġåįķ": 6308,
      "laag": 6309,
      "ĠPoe": 6310,
      "Ġtrial": 6311,
      "çŁ¿": 6312,
      "Ġtravel": 6313,
      "Ġperiod": 6314,
      "Ġgeef": 6315,
      "Ġquick": 6316,
      "Ġturned": 6317,
      "Ġtesting": 6318,
      "èĶ¬": 6319,
      "Ġschreeuwde": 6320,
      "Wij": 6321,
      "aine": 6322,
      "vo": 6323,
      "wagen": 6324,
      "Ġdre": 6325,
      "Ġkar": 6326,
      "Ġdeden": 6327,
      "Ġyard": 6328,
      "Ġcond": 6329,
      "Ġçģ": 6330,
      "ute": 6331,
      "Ġknie": 6332,
      "Ġrequ": 6333,
      "æķ·": 6334,
      "æ¬£": 6335,
      "raak": 6336,
      "ĠMexic": 6337,
      "opig": 6338,
      "ird": 6339,
      "gez": 6340,
      "éľį": 6341,
      "ĠCas": 6342,
      "ukte": 6343,
      "Ġplotseling": 6344,
      "Ġexamp": 6345,
      "Ġbure": 6346,
      "Ġgeloof": 6347,
      "Ġvloog": 6348,
      "Ġgevangen": 6349,
      "Ġduidelijk": 6350,
      "Ġdollar": 6351,
      "Ġvriendin": 6352,
      "Ġteacher": 6353,
      "Ġfinally": 6354,
      "Ġgirl": 6355,
      "ĠéĢł": 6356,
      "ĠéĢĤ": 6357,
      "Ġhing": 6358,
      "è¿ģ": 6359,
      "Ġsitting": 6360,
      "Ġzand": 6361,
      "Ġcause": 6362,
      "Ġç¼": 6363,
      "ĠWinke": 6364,
      "ĠBas": 6365,
      "Ġspace": 6366,
      "ĠVl": 6367,
      "Ġgrinn": 6368,
      "é»İ": 6369,
      "æ»ļ": 6370,
      "onger": 6371,
      "ught": 6372,
      "Ġways": 6373,
      "Ġvlug": 6374,
      "æ¤Ĵ": 6375,
      "Ġcrimin": 6376,
      "Ġschuld": 6377,
      "Ġdecis": 6378,
      "Ġgebeurde": 6379,
      "Ġprograms": 6380,
      "Ġsurpr": 6381,
      "Ġcommunity": 6382,
      "OkÃ©": 6383,
      "TE": 6384,
      "aakt": 6385,
      "nem": 6386,
      "Ġdwer": 6387,
      "Ġmand": 6388,
      "Ġmess": 6389,
      "Ġlow": 6390,
      "Ġlost": 6391,
      "Ġæ£": 6392,
      "Ġæħ": 6393,
      "ĠæŁ": 6394,
      "Ġfiet": 6395,
      "åºĦ": 6396,
      "Ġbeest": 6397,
      "èĩŃ": 6398,
      "oegen": 6399,
      "oepen": 6400,
      "çĸ¹": 6401,
      "ants": 6402,
      "ĠJoris": 6403,
      "ĠKarton": 6404,
      "aalde": 6405,
      "weet": 6406,
      "Ġsneeuw": 6407,
      "Ġbuilt": 6408,
      "Ġfamilies": 6409,
      "Ġcountries": 6410,
      "ĠæĶ¶": 6411,
      "iana": 6412,
      "Ġruzie": 6413,
      "Ġquality": 6414,
      "Ġgeneral": 6415,
      "Ġlikes": 6416,
      "Ġtoneel": 6417,
      "ĠLilly": 6418,
      "Ġdrinken": 6419,
      "Ġbureau": 6420,
      "ĠKartoni": 6421,
      "TEN": 6422,
      "UN": 6423,
      "two": 6424,
      "ĠèĦ¾": 6425,
      "ç»ĳ": 6426,
      "iter": 6427,
      "Ġfall": 6428,
      "Ġç¨": 6429,
      "ieft": 6430,
      "leed": 6431,
      "ĠTuur": 6432,
      "unately": 6433,
      "itter": 6434,
      "ĠALS": 6435,
      "ĠNoah": 6436,
      "00": 6437,
      "ians": 6438,
      "è¯±": 6439,
      "Ġbi": 6440,
      "Ġbunch": 6441,
      "ijl": 6442,
      "Ġev": 6443,
      "ä¼į": 6444,
      "Ġdokt": 6445,
      "dest": 6446,
      "Ġopin": 6447,
      "chte": 6448,
      "æµ©": 6449,
      "ĠSh": 6450,
      "Ġworst": 6451,
      "Ġå®¹": 6452,
      "bei": 6453,
      "Ġçľ¼": 6454,
      "Ġamazing": 6455,
      "tern": 6456,
      "uldig": 6457,
      "Ġtelevision": 6458,
      "Ġnergens": 6459,
      "ĠçłĶ": 6460,
      "Ġovere": 6461,
      "Even": 6462,
      "oke": 6463,
      "ret": 6464,
      "Ġæľº": 6465,
      "Ġæĺ¥": 6466,
      "ä¸ģ": 6467,
      "Ġbrought": 6468,
      "åľ£": 6469,
      "Ġcats": 6470,
      "iegel": 6471,
      "Ġstam": 6472,
      "çĤĴ": 6473,
      "Ġdoctor": 6474,
      "çĹĺ": 6475,
      "çĪ¬": 6476,
      "Ġvoorst": 6477,
      "Ġproject": 6478,
      "Ġå¹²": 6479,
      "anger": 6480,
      "ĠRu": 6481,
      "Ġmeeste": 6482,
      "æħ°": 6483,
      "bbie": 6484,
      "Ġmilit": 6485,
      "ijdens": 6486,
      "Ġberg": 6487,
      "Ġstudent": 6488,
      "Ġvandaan": 6489,
      "ĠRoosmarijn": 6490,
      "schijnlijk": 6491,
      "Ġfilm": 6492,
      "Ġsports": 6493,
      "Ġmompelde": 6494,
      "Ġcirc": 6495,
      "Ġsize": 6496,
      "Ġmur": 6497,
      "Ġkou": 6498,
      "å¸Ŀ": 6499,
      "iezen": 6500,
      "Ġregen": 6501,
      "éģµ": 6502,
      "Ġerbij": 6503,
      "ĠSj": 6504,
      "èĬ³": 6505,
      "ĠKL": 6506,
      "Ġwilden": 6507,
      "ĠLot": 6508,
      "ĠCol": 6509,
      "ĠåĪĺ": 6510,
      "Ġbrother": 6511,
      "anks": 6512,
      "Ġpersonal": 6513,
      "Ġteaching": 6514,
      "Ġstapte": 6515,
      "ollow": 6516,
      "Ġprivacy": 6517,
      "Yep": 6518,
      "loten": 6519,
      "mon": 6520,
      "Ġéĩĳ": 6521,
      "ĠæĺŁ": 6522,
      "åĲģ": 6523,
      "Ġgat": 6524,
      "Ġzakken": 6525,
      "ased": 6526,
      "Ġjonge": 6527,
      "æĬ¼": 6528,
      "éĢĨ": 6529,
      "ĠMal": 6530,
      "ĠEerst": 6531,
      "Ġfort": 6532,
      "ĠKn": 6533,
      "ĠKOM": 6534,
      "Ġprocess": 6535,
      "ĠVos": 6536,
      "ĠOnd": 6537,
      "é©°": 6538,
      "schuw": 6539,
      "æħİ": 6540,
      "æºľ": 6541,
      "Ġoffice": 6542,
      "Ġcalls": 6543,
      "blieft": 6544,
      "Ġeerder": 6545,
      "Ġstudents": 6546,
      "Ġmiddag": 6547,
      "ochem": 6548,
      "ĠAlleen": 6549,
      "proken": 6550,
      "Ġbeautiful": 6551,
      "Ġjudge": 6552,
      "ĠSimon": 6553,
      "Doe": 6554,
      "Van": 6555,
      "gier": 6556,
      "Ġä¹°": 6557,
      "Ġought": 6558,
      "Ġgaten": 6559,
      "Ġzaal": 6560,
      "reat": 6561,
      "Ġweight": 6562,
      "Ġsto": 6563,
      "key": 6564,
      "Ġlist": 6565,
      "ages": 6566,
      "å§¿": 6567,
      "éĴ¢": 6568,
      "ĠBar": 6569,
      "ç¥¥": 6570,
      "Ġbloemen": 6571,
      "Ġsaving": 6572,
      "çĭ±": 6573,
      "ney": 6574,
      "ç¢İ": 6575,
      "ĠæĶ¹": 6576,
      "Ġsuppose": 6577,
      "aleis": 6578,
      "Ġgebeurt": 6579,
      "Ġprobeert": 6580,
      "Ġfluistert": 6581,
      "ĠSaartje": 6582,
      "Ġvreemd": 6583,
      "ĠKrabbel": 6584,
      "Ġenorme": 6585,
      "Ġproduct": 6586,
      "!!": 6587,
      "nam": 6588,
      "ured": 6589,
      "Ġè¡¨": 6590,
      "anje": 6591,
      "Ġhulp": 6592,
      "Ġsat": 6593,
      "alve": 6594,
      "å¾Ĳ": 6595,
      "iger": 6596,
      "Ġdoel": 6597,
      "Ġreden": 6598,
      "ĠThat": 6599,
      "ĠSint": 6600,
      "Ġschiet": 6601,
      "ĠBL": 6602,
      "Ġspeak": 6603,
      "ç³ķ": 6604,
      "Ġbroek": 6605,
      "Ġkwijt": 6606,
      "Ġkleur": 6607,
      "é¸Ł": 6608,
      "å¡ĳ": 6609,
      "Ġpoes": 6610,
      "Ġbuying": 6611,
      "Ġæ¸¸": 6612,
      "Ġbecome": 6613,
      "Was": 6614,
      "fl": 6615,
      "woord": 6616,
      "Ġsad": 6617,
      "Ġlad": 6618,
      "Ġlieve": 6619,
      "Ġequ": 6620,
      "Ġfre": 6621,
      "Ġçĭ": 6622,
      "èĤĥ": 6623,
      "ĠåıĮ": 6624,
      "unde": 6625,
      "ĠKees": 6626,
      "ĠOl": 6627,
      "Ġallebei": 6628,
      "èĮ«": 6629,
      "æºĥ": 6630,
      "Ġactiv": 6631,
      "ĠåĸĿ": 6632,
      "ĠæĻ®": 6633,
      "Ġspeelt": 6634,
      "Ġprachtige": 6635,
      "Ġangst": 6636,
      "Ġfootball": 6637,
      "Ġrespons": 6638,
      "Ġexample": 6639,
      "lopen": 6640,
      "rat": 6641,
      "å®ı": 6642,
      "Ġkost": 6643,
      "Ġkopen": 6644,
      "ometimes": 6645,
      "æĬļ": 6646,
      "ays": 6647,
      "è¾ī": 6648,
      "çĲ´": 6649,
      "Ġschuur": 6650,
      "æģ¨": 6651,
      "æ¶µ": 6652,
      "ĠJoep": 6653,
      "Ġchurch": 6654,
      "ĠFred": 6655,
      "ific": 6656,
      "Ġvoel": 6657,
      "ivid": 6658,
      "Ġstrange": 6659,
      "aai": 6660,
      "Ġæĭī": 6661,
      "spect": 6662,
      "Ġindust": 6663,
      "ĠNiemand": 6664,
      "ZE": 6665,
      "wards": 6666,
      "Ġdak": 6667,
      "Ġgiven": 6668,
      "Ġlight": 6669,
      "Ġeet": 6670,
      "Ġfollow": 6671,
      "åĨ»": 6672,
      "èµ¢": 6673,
      "ilver": 6674,
      "eep": 6675,
      "sey": 6676,
      "Ġlied": 6677,
      "ĠHou": 6678,
      "Ġtevreden": 6679,
      "ĠMET": 6680,
      "ĠåıĤ": 6681,
      "æĤ¬": 6682,
      "ĠJochem": 6683,
      "ĠKoning": 6684,
      "achter": 6685,
      "ĠLaat": 6686,
      "ç²Ĺ": 6687,
      "Ġshirt": 6688,
      "Ġdichter": 6689,
      "ĠåĵĪ": 6690,
      "ĠåĩŃ": 6691,
      "Ġplaying": 6692,
      "Ġæµģ": 6693,
      "Ġended": 6694,
      "Ġsleut": 6695,
      "oemd": 6696,
      "plaats": 6697,
      "Ġnineteen": 6698,
      "ĠUnited": 6699,
      "èªī": 6700,
      "Ġanswer": 6701,
      "Ab": 6702,
      "Natuurlijk": 6703,
      "ih": 6704,
      "pel": 6705,
      "ĠéĿĴ": 6706,
      "eng": 6707,
      "Ġzoe": 6708,
      "onnie": 6709,
      "rekken": 6710,
      "Ġcaught": 6711,
      "Ġzeiden": 6712,
      "ilty": 6713,
      "Ġgeg": 6714,
      "Ġgep": 6715,
      "icy": 6716,
      "ĠMerel": 6717,
      "ĠWIL": 6718,
      "Ġå¤Ħ": 6719,
      "ĠKon": 6720,
      "ĠVal": 6721,
      "ules": 6722,
      "Ġguilty": 6723,
      "Ġterrible": 6724,
      "ERS": 6725,
      "èħĲ": 6726,
      "Ġslot": 6727,
      "Ġgekregen": 6728,
      "æ¾¡": 6729,
      "ouwen": 6730,
      "Ġplayed": 6731,
      "Ġçº¦": 6732,
      "Ġreport": 6733,
      "Ġaarde": 6734,
      "Ġdegree": 6735,
      "Maybe": 6736,
      "vall": 6737,
      "ä»ģ": 6738,
      "Ġhangen": 6739,
      "å¤º": 6740,
      "eloos": 6741,
      "åĪĬ": 6742,
      "Ġlippen": 6743,
      "èĤĸ": 6744,
      "iding": 6745,
      "Ġscher": 6746,
      "Ġnek": 6747,
      "gek": 6748,
      "ikke": 6749,
      "Ġwithin": 6750,
      "Ġtrans": 6751,
      "èİ±": 6752,
      "Ġdaarom": 6753,
      "Ġslap": 6754,
      "Ġlanger": 6755,
      "ĠUIT": 6756,
      "Ġgrap": 6757,
      "Ġgrade": 6758,
      "Ġgebeuren": 6759,
      "Ġbezig": 6760,
      "Ġindivid": 6761,
      "Ġrecycle": 6762,
      "Ġstomme": 6763,
      "Ġvoetbal": 6764,
      "Ġchoice": 6765,
      "Ġneighborhood": 6766,
      "Ġverschrikk": 6767,
      "Ġdokter": 6768,
      "Ġovereind": 6769,
      "ACHT": 6770,
      "Some": 6771,
      "UW": 6772,
      "ĠéĩĮ": 6773,
      "arch": 6774,
      "Ġbak": 6775,
      "onde": 6776,
      "Ġå°ĳ": 6777,
      "Ġjun": 6778,
      "åŁĭ": 6779,
      "Ġorder": 6780,
      "law": 6781,
      "ĠGEL": 6782,
      "Ġcharge": 6783,
      "ç´«": 6784,
      "Ġmuis": 6785,
      "å£®": 6786,
      "eltjes": 6787,
      "Ġtotally": 6788,
      "Ġå¸¸": 6789,
      "ĠUt": 6790,
      "Ġstrong": 6791,
      "Ġjobs": 6792,
      "Ġsleep": 6793,
      "Ġaccount": 6794,
      "Ġissue": 6795,
      "sn": 6796,
      "uut": 6797,
      "Ã¯": 6798,
      "Ġelf": 6799,
      "Ġhonger": 6800,
      "Ġzol": 6801,
      "Ġken": 6802,
      "Ġkam": 6803,
      "Ġles": 6804,
      "Ġpur": 6805,
      "Ġæ¾": 6806,
      "Ġfant": 6807,
      "iepen": 6808,
      "Ġknip": 6809,
      "Ġlich": 6810,
      "ĠMich": 6811,
      "æĻķ": 6812,
      "ĠJop": 6813,
      "èĥ¶": 6814,
      "Ġwild": 6815,
      "Ġcomfort": 6816,
      "èĻ«": 6817,
      "Ġproble": 6818,
      "Ġslim": 6819,
      "Ġsevent": 6820,
      "Ġpapier": 6821,
      "Ġglas": 6822,
      "Ġscary": 6823,
      "Ġcontin": 6824,
      "Ġlachend": 6825,
      "Ġmarket": 6826,
      "Ġdraait": 6827,
      "Ġyounger": 6828,
      "Ġseemed": 6829,
      "Ġcenter": 6830,
      "Ġnewspapers": 6831,
      "Ġcompletely": 6832,
      "boy": 6833,
      "work": 6834,
      "ĠéŁ³": 6835,
      "Ġoil": 6836,
      "Ġzu": 6837,
      "Ġkracht": 6838,
      "å·§": 6839,
      "Ġçı": 6840,
      "æĬĸ": 6841,
      "Ġrate": 6842,
      "Ġverke": 6843,
      "ä¾£": 6844,
      "Ġervoor": 6845,
      "ĠSc": 6846,
      "åĿĳ": 6847,
      "ĠKleine": 6848,
      "Ġshoot": 6849,
      "Ġklom": 6850,
      "Ġconst": 6851,
      "Ġdriving": 6852,
      "çªĿ": 6853,
      "Ġlake": 6854,
      "Ġå¸®": 6855,
      "Ġå·®": 6856,
      "fect": 6857,
      "Ġinstru": 6858,
      "Ġverhalen": 6859,
      "Ġfinan": 6860,
      "é¹¤": 6861,
      "Ġprivate": 6862,
      "iar": 6863,
      "iff": 6864,
      "oint": 6865,
      "Ġèµ·": 6866,
      "Ġèµ°": 6867,
      "Ġhiel": 6868,
      "Ġbuurt": 6869,
      "Ġview": 6870,
      "ĠInd": 6871,
      "Ġlukt": 6872,
      "Ġjaren": 6873,
      "Ġsteen": 6874,
      "ç§©": 6875,
      "Ġgegeven": 6876,
      "æĭ¨": 6877,
      "æĭ¾": 6878,
      "ç½Ĳ": 6879,
      "ĠZou": 6880,
      "ĠAll": 6881,
      "aps": 6882,
      "Ġworse": 6883,
      "Ġnobody": 6884,
      "Ġboys": 6885,
      "Ġsnow": 6886,
      "Ġconv": 6887,
      "è£¤": 6888,
      "Ġå¾·": 6889,
      "ĠåĨľ": 6890,
      "å¡Į": 6891,
      "Ġtrekken": 6892,
      "æĵ¦": 6893,
      "Ġbezoek": 6894,
      "Ġgooide": 6895,
      "Ġburge": 6896,
      "Ġhoge": 6897,
      "Ġruimte": 6898,
      "Ġmilitary": 6899,
      "UK": 6900,
      "some": 6901,
      "ĠèģĬ": 6902,
      "erie": 6903,
      "è¯¸": 6904,
      "Ġko": 6905,
      "Ġnamen": 6906,
      "Ġnational": 6907,
      "Ġem": 6908,
      "Ġpress": 6909,
      "Ġcre": 6910,
      "ĠçŁ": 6911,
      "çĽĹ": 6912,
      "Ġvanaf": 6913,
      "è°£": 6914,
      "çĸ®": 6915,
      "èģª": 6916,
      "ĠWAAR": 6917,
      "ĠWouter": 6918,
      "é¡µ": 6919,
      "ĠOver": 6920,
      "è£Ĥ": 6921,
      "ANG": 6922,
      "Ġbiggest": 6923,
      "åĭ¾": 6924,
      "çŀĴ": 6925,
      "Ġwedstrijd": 6926,
      "Hou": 6927,
      "ying": 6928,
      "Ġé£Ł": 6929,
      "Ġé»ĳ": 6930,
      "ankt": 6931,
      "Ġsqu": 6932,
      "Ġbra": 6933,
      "Ġkaart": 6934,
      "Ġloop": 6935,
      "Ġpoor": 6936,
      "Ġpract": 6937,
      "Ġfix": 6938,
      "Ġhap": 6939,
      "æĬ¬": 6940,
      "ellig": 6941,
      "rop": 6942,
      "antie": 6943,
      "æĴĴ": 6944,
      "ĠAN": 6945,
      "Ġåį°": 6946,
      "Ġå¤±": 6947,
      "Ġtwice": 6948,
      "Ġanywhere": 6949,
      "çģŃ": 6950,
      "school": 6951,
      "Ġafgelopen": 6952,
      "Ġsave": 6953,
      "Ġvroeger": 6954,
      "Ġå·´": 6955,
      "Ġacross": 6956,
      "Ġcrimes": 6957,
      "hington": 6958,
      "Ġlearned": 6959,
      "Ġduwde": 6960,
      "Ġprofession": 6961,
      "Ġapartment": 6962,
      "Ġclothes": 6963,
      "Every": 6964,
      "see": 6965,
      "Ġè§Ħ": 6966,
      "Ġè¾¾": 6967,
      "Ġhonden": 6968,
      "Ġvoren": 6969,
      "onnen": 6970,
      "Ġevent": 6971,
      "Ġcool": 6972,
      "ising": 6973,
      "Ġring": 6974,
      "Ġreed": 6975,
      "è¾©": 6976,
      "ellent": 6977,
      "Ġschip": 6978,
      "ĠZelf": 6979,
      "ĠAm": 6980,
      "Ġvooral": 6981,
      "èĥģ": 6982,
      "æ¡Ĥ": 6983,
      "ĠLind": 6984,
      "Ġprice": 6985,
      "éĶ¦": 6986,
      "èĭĶ": 6987,
      "ĠåĪĿ": 6988,
      "Ġshot": 6989,
      "Ġbedo": 6990,
      "Ġzwart": 6991,
      "Ġmoeite": 6992,
      "Ġplein": 6993,
      "Ġspending": 6994,
      "Ġvliegen": 6995,
      "Ġcosts": 6996,
      "middell": 6997,
      "Ġmachine": 6998,
      "Ġæħ¢": 6999,
      "Ġæ¾³": 7000,
      "Laat": 7001,
      "UT": 7002,
      "dam": 7003,
      "ester": 7004,
      "åļ": 7005,
      "Ġéģ¿": 7006,
      "åĲĵ": 7007,
      "Ġbomen": 7008,
      "ijm": 7009,
      "orte": 7010,
      "orgd": 7011,
      "Ġleer": 7012,
      "Ġfac": 7013,
      "Ġknows": 7014,
      "æĶĴ": 7015,
      "Ġmeet": 7016,
      "æ±ª": 7017,
      "gekomen": 7018,
      "Ġdansen": 7019,
      "æĲģ": 7020,
      "Ġfamilie": 7021,
      "åĭĴ": 7022,
      "Ġdogs": 7023,
      "Ġdrop": 7024,
      "ĠWashington": 7025,
      "Ġnecessarily": 7026,
      "middellijk": 7027,
      "Any": 7028,
      "Me": 7029,
      "gin": 7030,
      "ielen": 7031,
      "lor": 7032,
      "time": 7033,
      "ĠæĹħ": 7034,
      "Ġmix": 7035,
      "Ġkist": 7036,
      "Ġnauw": 7037,
      "Ġvide": 7038,
      "Ġpaleis": 7039,
      "Ġenv": 7040,
      "Ġstation": 7041,
      "iland": 7042,
      "åĴ¬": 7043,
      "æŀ£": 7044,
      "è°ĭ": 7045,
      "ĠEd": 7046,
      "ĠZw": 7047,
      "ĠNE": 7048,
      "æŁľ": 7049,
      "Ġchoc": 7050,
      "Ġgrijn": 7051,
      "oss": 7052,
      "ukken": 7053,
      "Ġwerkt": 7054,
      "ivil": 7055,
      "Ġroad": 7056,
      "Ġfeeling": 7057,
      "Ġwatched": 7058,
      "others": 7059,
      "Ġscre": 7060,
      "ĠæĶ¿": 7061,
      "Ġstoppen": 7062,
      "Ġstapt": 7063,
      "Ġbrul": 7064,
      "Ġschrik": 7065,
      "ĠJullie": 7066,
      "Ġkilled": 7067,
      "ĠHolly": 7068,
      "Ġlichaam": 7069,
      "Ġburgemeester": 7070,
      "Let": 7071,
      "Pl": 7072,
      "eh": 7073,
      "ground": 7074,
      "kast": 7075,
      "sse": 7076,
      "é¬": 7077,
      "Ġèĥĥ": 7078,
      "Ġç»Ŀ": 7079,
      "Ġgreep": 7080,
      "Ġkoek": 7081,
      "åį§": 7082,
      "Ġvee": 7083,
      "Ġlog": 7084,
      "Ġed": 7085,
      "Ġinderd": 7086,
      "Ġcor": 7087,
      "Ġjammer": 7088,
      "æĥ§": 7089,
      "æīĶ": 7090,
      "éĢ®": 7091,
      "éĢĹ": 7092,
      "ilar": 7093,
      "è¾½": 7094,
      "Ġteen": 7095,
      "çº¹": 7096,
      "Ġverv": 7097,
      "ĠMeneer": 7098,
      "æ¸¡": 7099,
      "çĲª": 7100,
      "Ġhadn": 7101,
      "æĽ¹": 7102,
      "åĺī": 7103,
      "Ġzoiets": 7104,
      "essen": 7105,
      "ĠOF": 7106,
      "Ġmeans": 7107,
      "Ġtrash": 7108,
      "æ£Ĵ": 7109,
      "Ġeleven": 7110,
      "ERT": 7111,
      "rijden": 7112,
      "æĳĩ": 7113,
      "Ġparty": 7114,
      "ounds": 7115,
      "Ġçī©": 7116,
      "Ġdecide": 7117,
      "Ġfinish": 7118,
      "ĠElise": 7119,
      "Ġexcellent": 7120,
      "Ġverwacht": 7121,
      "Ġparticularly": 7122,
      "Ġbuilding": 7123,
      "Ġhangt": 7124,
      "Ġschrijven": 7125,
      "Ġmotor": 7126,
      "gierig": 7127,
      "Ġinderdaad": 7128,
      "IST": 7129,
      "bra": 7130,
      "dru": 7131,
      "ho": 7132,
      "ling": 7133,
      "nee": 7134,
      "ral": 7135,
      "ĠéĢī": 7136,
      "Ġharen": 7137,
      "ineer": 7138,
      "Ġwow": 7139,
      "Ġwanneer": 7140,
      "Ġaand": 7141,
      "Ġbellen": 7142,
      "æĸĮ": 7143,
      "åİķ": 7144,
      "erecht": 7145,
      "è´±": 7146,
      "Ġmem": 7147,
      "icken": 7148,
      "Ġermee": 7149,
      "ĠBil": 7150,
      "Ġnoticed": 7151,
      "ikker": 7152,
      "æĽ¼": 7153,
      "åĸĺ": 7154,
      "Ġspullen": 7155,
      "ĠPim": 7156,
      "ç¨Ģ": 7157,
      "ĠåĲĪ": 7158,
      "çł¸": 7159,
      "Ġå½±": 7160,
      "Ġæ²»": 7161,
      "ijdt": 7162,
      "intje": 7163,
      "Ġdroeg": 7164,
      "Ġvogel": 7165,
      "åłĨ": 7166,
      "Ġbigger": 7167,
      "æĩĴ": 7168,
      "ç¢Ĺ": 7169,
      "Ġgroene": 7170,
      "exactly": 7171,
      "izend": 7172,
      "inning": 7173,
      "Ġæ¬§": 7174,
      "Ġposit": 7175,
      "Ġmedical": 7176,
      "Ġborst": 7177,
      "ĠHeb": 7178,
      "Ġpenal": 7179,
      "Ġongeluk": 7180,
      "Ġdepends": 7181,
      "Then": 7182,
      "fer": 7183,
      "tikki": 7184,
      "veld": 7185,
      "Ġè§ģ": 7186,
      "ĠæĪ¿": 7187,
      "Ġhonderd": 7188,
      "Ġwood": 7189,
      "Ġbon": 7190,
      "Ġkeel": 7191,
      "Ġnad": 7192,
      "Ġæ¢": 7193,
      "æĿľ": 7194,
      "åŃĿ": 7195,
      "Ġfru": 7196,
      "Ġfund": 7197,
      "Ġits": 7198,
      "isc": 7199,
      "å¦¥": 7200,
      "èĤĩ": 7201,
      "Ġåħ»": 7202,
      "opte": 7203,
      "Ġå®Ŀ": 7204,
      "åĿł": 7205,
      "èĨĿ": 7206,
      "Ġengineer": 7207,
      "ĠDagmar": 7208,
      "ĠRuben": 7209,
      "kere": 7210,
      "licht": 7211,
      "six": 7212,
      "Ġä¸ĩ": 7213,
      "Ġè¶Ĭ": 7214,
      "Ġderde": 7215,
      "Ġdezelfde": 7216,
      "Ġeh": 7217,
      "Ġfield": 7218,
      "æī¬": 7219,
      "Ġeentje": 7220,
      "åĩĳ": 7221,
      "éĻĮ": 7222,
      "Ġren": 7223,
      "ural": 7224,
      "é¢ĸ": 7225,
      "Ġgegaan": 7226,
      "ĠSat": 7227,
      "ĠSal": 7228,
      "Ġvoort": 7229,
      "ado": 7230,
      "æıĴ": 7231,
      "ĠCaine": 7232,
      "é©±": 7233,
      "Ġsuc": 7234,
      "Ġseeing": 7235,
      "èİ¹": 7236,
      "Ġgeluk": 7237,
      "Ġåĵ¦": 7238,
      "Ġfamiliar": 7239,
      "ĠStates": 7240,
      "Ġgrootste": 7241,
      "gesteld": 7242,
      "Ġinside": 7243,
      "ĠåŁİ": 7244,
      "EEFT": 7245,
      "cteur": 7246,
      "oft": 7247,
      "Ġsoep": 7248,
      "elly": 7249,
      "åįµ": 7250,
      "Ġlab": 7251,
      "Ġç³": 7252,
      "veer": 7253,
      "Ġweken": 7254,
      "Ġstreng": 7255,
      "Ġredden": 7256,
      "æŀ¢": 7257,
      "genomen": 7258,
      "Ġtevoor": 7259,
      "æµĵ": 7260,
      "ĠSpr": 7261,
      "æ¶Ľ": 7262,
      "ĠNAAR": 7263,
      "ĠVR": 7264,
      "ĠGeen": 7265,
      "çģ°": 7266,
      "Ġleu": 7267,
      "Ã©Ã©": 7268,
      "Ġbrom": 7269,
      "ains": 7270,
      "æħĮ": 7271,
      "Ġluisteren": 7272,
      "Ġstep": 7273,
      "ĠæŃ»": 7274,
      "é¼ł": 7275,
      "çŀİ": 7276,
      "Ġå±ŀ": 7277,
      "Ġjurk": 7278,
      "ibility": 7279,
      "ĠAmerica": 7280,
      "ĠåĿļ": 7281,
      "Ġsingle": 7282,
      "Ġbaseball": 7283,
      "iÃ«rs": 7284,
      "Ġtevoorschijn": 7285,
      "ec": 7286,
      "ner": 7287,
      "rict": 7288,
      "uff": 7289,
      "ĠèĤĿ": 7290,
      "Ġhosp": 7291,
      "ined": 7292,
      "Ġbath": 7293,
      "Ġzorg": 7294,
      "Ġvonden": 7295,
      "Ġpir": 7296,
      "å¾½": 7297,
      "Ġçĳ": 7298,
      "æĥ©": 7299,
      "eace": 7300,
      "Ġbeet": 7301,
      "Ġstok": 7302,
      "Ġdolf": 7303,
      "Ġrijden": 7304,
      "ĠDra": 7305,
      "æķ¬": 7306,
      "è¾ĸ": 7307,
      "å½¹": 7308,
      "éĽĩ": 7309,
      "ental": 7310,
      "Ġtegelijk": 7311,
      "ica": 7312,
      "Ġerger": 7313,
      "ĠSar": 7314,
      "ĠWhich": 7315,
      "çĥ¤": 7316,
      "Ġuitz": 7317,
      "Ġchann": 7318,
      "å£ģ": 7319,
      "Ġgeloven": 7320,
      "Ġvlucht": 7321,
      "èıĬ": 7322,
      "Ġaccept": 7323,
      "Ġzieken": 7324,
      "è¸ı": 7325,
      "Ġclasses": 7326,
      "Ġbesloot": 7327,
      "Ġtrouwens": 7328,
      "fortunately": 7329,
      "Ġstreet": 7330,
      "Ġtraining": 7331,
      "Ġprachtig": 7332,
      "ĠHIER": 7333,
      "Ġgeweldig": 7334,
      "At": 7335,
      "Jan": 7336,
      "pte": 7337,
      "ĠèģĶ": 7338,
      "Ġå£": 7339,
      "å¤¹": 7340,
      "ande": 7341,
      "Ġdeel": 7342,
      "Ġeinde": 7343,
      "Ġpost": 7344,
      "å¼Ĭ": 7345,
      "Ġzeer": 7346,
      "åĩ¡": 7347,
      "oose": 7348,
      "è·ĥ": 7349,
      "Ġrespect": 7350,
      "ĠHeel": 7351,
      "roken": 7352,
      "æģĴ": 7353,
      "iron": 7354,
      "æıŃ": 7355,
      "ĠJim": 7356,
      "Ġsnapt": 7357,
      "ekent": 7358,
      "çĭ¼": 7359,
      "ĠUit": 7360,
      "Ġstrand": 7361,
      "Ġwoont": 7362,
      "Ġglimlach": 7363,
      "Ġbijzonder": 7364,
      "Ġenviron": 7365,
      ").": 7366,
      "NEN": 7367,
      "bak": 7368,
      "boek": 7369,
      "eight": 7370,
      "ule": 7371,
      "ĠæľĪ": 7372,
      "Ġdraag": 7373,
      "Ġsouth": 7374,
      "Ġmill": 7375,
      "Ġground": 7376,
      "ĠDAG": 7377,
      "vert": 7378,
      "then": 7379,
      "æĮĸ": 7380,
      "oph": 7381,
      "Ġern": 7382,
      "éĴ»": 7383,
      "ĠWij": 7384,
      "Ġspijt": 7385,
      "ĠPaul": 7386,
      "ĠGa": 7387,
      "æ¡¶": 7388,
      "ĠCl": 7389,
      "Ġbox": 7390,
      "Ġpicked": 7391,
      "Ġavail": 7392,
      "å´ĩ": 7393,
      "Ġcrazy": 7394,
      "Ġaarz": 7395,
      "ĠAnton": 7396,
      "ĠFlorida": 7397,
      "Ġenvironment": 7398,
      "'.": 7399,
      "As": 7400,
      "Prob": 7401,
      "gaat": 7402,
      "ĠYeah": 7403,
      "Ġtap": 7404,
      "ä»ĵ": 7405,
      "ete": 7406,
      "Ġkoud": 7407,
      "Ġçħ": 7408,
      "ota": 7409,
      "Ġsterk": 7410,
      "Ġalweer": 7411,
      "Ġdol": 7412,
      "Ġmob": 7413,
      "Ġuite": 7414,
      "èºģ": 7415,
      "Ġhemel": 7416,
      "Ġprison": 7417,
      "Ġwaarschijnlijk": 7418,
      "ivier": 7419,
      "Ġbedroom": 7420,
      "Ġparts": 7421,
      "IND": 7422,
      "Ġcourt": 7423,
      "Ġhappening": 7424,
      "ommel": 7425,
      "Ġpunt": 7426,
      "Ġlawy": 7427,
      "é¬¼": 7428,
      "Ġçĳŀ": 7429,
      "gra": 7430,
      "Ġä¾ĭ": 7431,
      "Ġä¼°": 7432,
      "Ġhig": 7433,
      "inig": 7434,
      "Ġwagen": 7435,
      "Ġwaste": 7436,
      "Ġaant": 7437,
      "å°¤": 7438,
      "Ġzult": 7439,
      "Ġlijf": 7440,
      "ches": 7441,
      "Ġfight": 7442,
      "Ġknap": 7443,
      "çĽĪ": 7444,
      "ĠDAAR": 7445,
      "å±¥": 7446,
      "oorn": 7447,
      "ĠWEL": 7448,
      "irgin": 7449,
      "ĠNoor": 7450,
      "Ġspiegel": 7451,
      "ffen": 7452,
      "ĠOM": 7453,
      "æ¡ĳ": 7454,
      "ĠLang": 7455,
      "abeth": 7456,
      "sof": 7457,
      "Ġcarry": 7458,
      "Ġsew": 7459,
      "Ġherinn": 7460,
      "Ġbetekent": 7461,
      "Ġglass": 7462,
      "Ġblack": 7463,
      "Ġå¦Ī": 7464,
      "Ġæ£Ģ": 7465,
      "Ach": 7466,
      "Ben": 7467,
      "Dag": 7468,
      "OB": 7469,
      "SCH": 7470,
      "aden": 7471,
      "ring": 7472,
      "zz": 7473,
      "Ġ3": 7474,
      "ĠX": 7475,
      "Ġéĩĩ": 7476,
      "Ġèħ¾": 7477,
      "Ġtoren": 7478,
      "Ġtijdens": 7479,
      "Ġaer": 7480,
      "å¤ķ": 7481,
      "Ġbuur": 7482,
      "Ġboog": 7483,
      "Ġboeken": 7484,
      "stikke": 7485,
      "Ġçķ": 7486,
      "Ġonmiddellijk": 7487,
      "amm": 7488,
      "urig": 7489,
      "çĹĴ": 7490,
      "ĠMc": 7491,
      "ĠMel": 7492,
      "opper": 7493,
      "ĠEm": 7494,
      "ĠEbbie": 7495,
      "Ġåıĭ": 7496,
      "ĠSoms": 7497,
      "una": 7498,
      "unk": 7499,
      "anten": 7500,
      "æıı": 7501,
      "éļĨ": 7502,
      "ĠCate": 7503,
      "aalf": 7504,
      "Ġheld": 7505,
      "å¨ĥ": 7506,
      "Ġhandle": 7507,
      "Ġvertrouw": 7508,
      "Ġraad": 7509,
      "Ġrock": 7510,
      "åĭŁ": 7511,
      "ĠæĮģ": 7512,
      "Ġspringen": 7513,
      "Ġå¿ħ": 7514,
      "èĨ³": 7515,
      "ĠSamir": 7516,
      "clock": 7517,
      "ç£ķ": 7518,
      "Ġextre": 7519,
      "Ġgebruiken": 7520,
      "Ġgraduate": 7521,
      "Ġmelk": 7522,
      "Ġdecision": 7523,
      "Ġsleutel": 7524,
      "irginia": 7525,
      "HI": 7526,
      "Mag": 7527,
      "Zijn": 7528,
      "goed": 7529,
      "het": 7530,
      "maken": 7531,
      "Ġè¡Ģ": 7532,
      "Ġè¯¶": 7533,
      "Ĥ¬": 7534,
      "Ġdeter": 7535,
      "Ġwall": 7536,
      "Ġban": 7537,
      "alm": 7538,
      "å¾¡": 7539,
      "ä¼ª": 7540,
      "ows": 7541,
      "éĹ¯": 7542,
      "Ġheu": 7543,
      "isk": 7544,
      "å¿Į": 7545,
      "Ġrese": 7546,
      "è°İ": 7547,
      "çŃĽ": 7548,
      "ĠEast": 7549,
      "Ġform": 7550,
      "Ġdonkere": 7551,
      "aus": 7552,
      "ĠBob": 7553,
      "ftig": 7554,
      "èº²": 7555,
      "éħ¬": 7556,
      "ĠRich": 7557,
      "ç²¥": 7558,
      "illende": 7559,
      "Ġwaarop": 7560,
      "Ġours": 7561,
      "Ġslag": 7562,
      "ELD": 7563,
      "Ġshouldn": 7564,
      "ĠæİĴ": 7565,
      "Ġgeneration": 7566,
      "Ġsimilar": 7567,
      "Ġsoldaten": 7568,
      "ĠUtah": 7569,
      "dien": 7570,
      "ev": 7571,
      "fr": 7572,
      "raks": 7573,
      "Ġè®¡": 7574,
      "ĠèĤ¾": 7575,
      "Ġtro": 7576,
      "Ġhut": 7577,
      "Ġaap": 7578,
      "etsen": 7579,
      "Ġbother": 7580,
      "ijst": 7581,
      "Ġlay": 7582,
      "Ġdevelop": 7583,
      "Ġei": 7584,
      "Ġitself": 7585,
      "ilities": 7586,
      "issy": 7587,
      "Ġlift": 7588,
      "ĠHun": 7589,
      "ĠHEEFT": 7590,
      "çº²": 7591,
      "ĠMy": 7592,
      "ĠEgy": 7593,
      "ĠBo": 7594,
      "ĠNOG": 7595,
      "ĠVirginia": 7596,
      "ĠRikki": 7597,
      "etters": 7598,
      "ç²Ĵ": 7599,
      "çħİ": 7600,
      "ĠåĨ³": 7601,
      "Ġflink": 7602,
      "Ġstevig": 7603,
      "Ġdrukte": 7604,
      "STE": 7605,
      "Ġappar": 7606,
      "Ġjail": 7607,
      "OOF": 7608,
      "Ġgeschrokken": 7609,
      "Ġwaiting": 7610,
      "Ġlucky": 7611,
      "Ġheavy": 7612,
      "An": 7613,
      "Act": 7614,
      "Vol": 7615,
      "go": 7616,
      "mend": 7617,
      "Ġä»»": 7618,
      "ani": 7619,
      "Ġhurt": 7620,
      "Ġdel": 7621,
      "Ġsem": 7622,
      "ony": 7623,
      "staart": 7624,
      "Ġpian": 7625,
      "Ġfol": 7626,
      "ott": 7627,
      "Ġenth": 7628,
      "æĬĽ": 7629,
      "åĩ¤": 7630,
      "utt": 7631,
      "éĢĽ": 7632,
      "Ġbeurt": 7633,
      "Ġstaarde": 7634,
      "keek": 7635,
      "eller": 7636,
      "çĸ¯": 7637,
      "jeblieft": 7638,
      "ĠTO": 7639,
      "Ġanim": 7640,
      "åĿĬ": 7641,
      "Ġåįĥ": 7642,
      "ĠKijk": 7643,
      "ĠKelly": 7644,
      "ĠPenn": 7645,
      "ĠPapa": 7646,
      "çĬ¬": 7647,
      "Ġdans": 7648,
      "uurd": 7649,
      "Ġdroog": 7650,
      "Ġplaat": 7651,
      "Ġkleed": 7652,
      "ribut": 7653,
      "Ġclos": 7654,
      "ELL": 7655,
      "Ġstopt": 7656,
      "Ġvriendelijk": 7657,
      "Ġvisit": 7658,
      "çĩķ": 7659,
      "Ġstayed": 7660,
      "Ġasked": 7661,
      "minste": 7662,
      "Ġç¦ı": 7663,
      "Ġglimlachte": 7664,
      "Ġgroter": 7665,
      "Ġoccasion": 7666,
      "ĠEurope": 7667,
      "Ġavailable": 7668,
      "Moet": 7669,
      "hoofd": 7670,
      "Ġèĭ¹": 7671,
      "æĺ§": 7672,
      "Ġmount": 7673,
      "Ġzul": 7674,
      "Ġlas": 7675,
      "Ġlunch": 7676,
      "onken": 7677,
      "ald": 7678,
      "iech": 7679,
      "Ġsta": 7680,
      "Ġstat": 7681,
      "isa": 7682,
      "Ġsched": 7683,
      "adel": 7684,
      "ĠNorth": 7685,
      "ĠKl": 7686,
      "Ġanyone": 7687,
      "æ·¤": 7688,
      "gele": 7689,
      "Ġvloer": 7690,
      "Ġminute": 7691,
      "ĠFrank": 7692,
      "Ġattention": 7693,
      "Ġguns": 7694,
      "Ġæ´»": 7695,
      "Ġnieuwsgierig": 7696,
      "ĠMiri": 7697,
      "Ġvreselijk": 7698,
      "Ġopinion": 7699,
      "Ġzoekt": 7700,
      "Ġnauwelijks": 7701,
      "Na": 7702,
      "UUR": 7703,
      "aw": 7704,
      "four": 7705,
      "oi": 7706,
      "wat": 7707,
      "Ġè§£": 7708,
      "Ġè¡¥": 7709,
      "Ġä¼Ĭ": 7710,
      "Ġgiving": 7711,
      "Ġziel": 7712,
      "Ġvies": 7713,
      "Ġdep": 7714,
      "Ġpack": 7715,
      "èĢĢ": 7716,
      "ieb": 7717,
      "Ġstof": 7718,
      "Ġopl": 7719,
      "ente": 7720,
      "ĠMary": 7721,
      "ĠTies": 7722,
      "ĠSamen": 7723,
      "Ġschrok": 7724,
      "æ¶Ĥ": 7725,
      "ĠLorre": 7726,
      "Ġmaand": 7727,
      "osh": 7728,
      "Ġintern": 7729,
      "Ġhuid": 7730,
      "Ġhuge": 7731,
      "Ġlagen": 7732,
      "Ġvertel": 7733,
      "rift": 7734,
      "Ġhimself": 7735,
      "Ġcolor": 7736,
      "Ġspring": 7737,
      "ç¿°": 7738,
      "Ġcash": 7739,
      "Ġski": 7740,
      "Ġtrouwen": 7741,
      "burg": 7742,
      "Ġverdrietig": 7743,
      "Ġmurder": 7744,
      "Ġpenalty": 7745,
      "Ġresearch": 7746,
      "For": 7747,
      "Meester": 7748,
      "dan": 7749,
      "hile": 7750,
      "Ġé¼ĵ": 7751,
      "Ġèĭ¥": 7752,
      "Ġtal": 7753,
      "ering": 7754,
      "ances": 7755,
      "ini": 7756,
      "åı¨": 7757,
      "staan": 7758,
      "oming": 7759,
      "éĢ¢": 7760,
      "éĻµ": 7761,
      "æķ¦": 7762,
      "Ġmeed": 7763,
      "æĭĨ": 7764,
      "Ġverra": 7765,
      "ĠMama": 7766,
      "ĠBEN": 7767,
      "cted": 7768,
      "Ġå®£": 7769,
      "ĠJesse": 7770,
      "å»Ĭ": 7771,
      "Ġgrass": 7772,
      "ĠRo": 7773,
      "Ġterm": 7774,
      "Ġboat": 7775,
      "èħĳ": 7776,
      "ĠæĿŃ": 7777,
      "å«Ĥ": 7778,
      "Ġperfect": 7779,
      "izabeth": 7780,
      "Ġbasis": 7781,
      "Ġslaan": 7782,
      "Ġeerlijk": 7783,
      "Ġappl": 7784,
      "Ġæ±ī": 7785,
      "Ġaware": 7786,
      "Ġbehind": 7787,
      "slag": 7788,
      "Ġbenefit": 7789,
      "Ġtypes": 7790,
      "Ġpossible": 7791,
      "affi": 7792,
      "æ§½": 7793,
      "Omdat": 7794,
      "Ġindustry": 7795,
      "Ġçıł": 7796,
      "Eh": 7797,
      "eople": 7798,
      "gn": 7799,
      "iast": 7800,
      "wonden": 7801,
      "Ġä¸ª": 7802,
      "Ġè¾ĥ": 7803,
      "Ġhist": 7804,
      "Ġself": 7805,
      "Ġgere": 7806,
      "éĤ»": 7807,
      "æīŃ": 7808,
      "Ġweinig": 7809,
      "å¿ł": 7810,
      "è°¨": 7811,
      "è°Ĳ": 7812,
      "aker": 7813,
      "æµ´": 7814,
      "æĮ¡": 7815,
      "ĠToch": 7816,
      "ĠSL": 7817,
      "æģ¼": 7818,
      "ĠNEE": 7819,
      "ĠJap": 7820,
      "èį¡": 7821,
      "Ġmuizen": 7822,
      "ĠåĪĽ": 7823,
      "umm": 7824,
      "é¥°": 7825,
      "ills": 7826,
      "èĮħ": 7827,
      "Ġhouses": 7828,
      "actually": 7829,
      "æ¢°": 7830,
      "Ġtruck": 7831,
      "ĠAlbert": 7832,
      "Ġnummer": 7833,
      "Ġcomputers": 7834,
      "Ġvleug": 7835,
      "Ġkregen": 7836,
      "ĠLilian": 7837,
      "Ġhouten": 7838,
      "Ġcriminal": 7839,
      "KT": 7840,
      "bs": 7841,
      "mother": 7842,
      "ui": 7843,
      "viously": 7844,
      "zett": 7845,
      "Ġäº§": 7846,
      "Ġè§Ĩ": 7847,
      "è¿Ī": 7848,
      "att": 7849,
      "Ġbood": 7850,
      "Ġvot": 7851,
      "Ġcivil": 7852,
      "lei": 7853,
      "Ġeenmaal": 7854,
      "Ġopges": 7855,
      "æİı": 7856,
      "çĸĨ": 7857,
      "ĠMinn": 7858,
      "aged": 7859,
      "ĠåıĬ": 7860,
      "ĠSa": 7861,
      "é¦Ī": 7862,
      "ĠOma": 7863,
      "ç¡ķ": 7864,
      "achtige": 7865,
      "Ġchicken": 7866,
      "ulous": 7867,
      "æ£ī": 7868,
      "kering": 7869,
      "Ġdry": 7870,
      "Ġwarme": 7871,
      "Ġsepar": 7872,
      "Ġbackground": 7873,
      "Ġæĸ¹": 7874,
      "Ġgevallen": 7875,
      "Ġgreen": 7876,
      "Ġarg": 7877,
      "amera": 7878,
      "every": 7879,
      "Ġdraak": 7880,
      "ĠChar": 7881,
      "Ġeighteen": 7882,
      "ĠAnk": 7883,
      "miss": 7884,
      "ALL": 7885,
      "ĠçĪ¶": 7886,
      "Ġattit": 7887,
      "Ġschrikt": 7888,
      "ĠæļĤ": 7889,
      "ĠPieter": 7890,
      "ology": 7891,
      "Ġbags": 7892,
      "Ġmagazines": 7893,
      "Ġoriginally": 7894,
      "Ġzenuw": 7895,
      "Ġdichterbij": 7896,
      "ĠZelfs": 7897,
      "Ġaerob": 7898,
      "Lu": 7899,
      "Most": 7900,
      "Sorry": 7901,
      "To": 7902,
      "bos": 7903,
      "ham": 7904,
      "que": 7905,
      "toe": 7906,
      "view": 7907,
      "wassen": 7908,
      "çĴ": 7909,
      "Ġé¡º": 7910,
      "Ġmerk": 7911,
      "åĲĬ": 7912,
      "aring": 7913,
      "Ġieder": 7914,
      "Ġgiech": 7915,
      "Ġkus": 7916,
      "Ġnoemen": 7917,
      "Ġezel": 7918,
      "åİĮ": 7919,
      "Ġalum": 7920,
      "çĽĴ": 7921,
      "Ġrook": 7922,
      "Ġrare": 7923,
      "ĠDi": 7924,
      "è¾ĳ": 7925,
      "ĠHans": 7926,
      "éľ¸": 7927,
      "Ġmaanden": 7928,
      "ĠEngel": 7929,
      "Ġevening": 7930,
      "Ġbloem": 7931,
      "Ġhuizen": 7932,
      "ertjes": 7933,
      "Ġafges": 7934,
      "Ġsafe": 7935,
      "Ġwilling": 7936,
      "ĠåĳĬ": 7937,
      "Ġloved": 7938,
      "Ġsprak": 7939,
      "Ġpersonally": 7940,
      "Ġbreed": 7941,
      "Ġçº¢": 7942,
      "ĠHEM": 7943,
      "Ġspeci": 7944,
      "Ġhartstikke": 7945,
      "Ġdiscuss": 7946,
      "Ġswitch": 7947,
      "akkelijk": 7948,
      "Ġæ¡Ī": 7949,
      "efully": 7950,
      "Ġçģ«": 7951,
      "Actually": 7952,
      "Don": 7953,
      "kn": 7954,
      "vels": 7955,
      "wind": 7956,
      "Ġet": 7957,
      "Ġtaart": 7958,
      "Ġhoed": 7959,
      "Ġdien": 7960,
      "Ġå©": 7961,
      "Ġmater": 7962,
      "å®ĭ": 7963,
      "Ġbelt": 7964,
      "Ġgisteren": 7965,
      "Ġgives": 7966,
      "Ġlose": 7967,
      "Ġletters": 7968,
      "esch": 7969,
      "Ġfit": 7970,
      "Ġfut": 7971,
      "oma": 7972,
      "åİ¨": 7973,
      "æ²Į": 7974,
      "æłı": 7975,
      "éģ¥": 7976,
      "é¢ģ": 7977,
      "imp": 7978,
      "agers": 7979,
      "Ġåıĸ": 7980,
      "ĠSN": 7981,
      "une": 7982,
      "é£ĺ": 7983,
      "gemaakt": 7984,
      "Ġspannen": 7985,
      "ĠPas": 7986,
      "èĪĨ": 7987,
      "ĠåĲ¦": 7988,
      "ĠåĪ©": 7989,
      "ummer": 7990,
      "raagd": 7991,
      "Ġseason": 7992,
      "Ġherh": 7993,
      "Ġbeden": 7994,
      "Ġlawn": 7995,
      "Ġåĳ¼": 7996,
      "IJD": 7997,
      "Ġraised": 7998,
      "Ġstrak": 7999,
      "Ġparent": 8000,
      "itein": 8001,
      "Ġbasic": 8002,
      "Ġhelps": 8003,
      "Ġserve": 8004,
      "Ġæ³¨": 8005,
      "OED": 8006,
      "Ġlearning": 8007,
      "Ġincre": 8008,
      "èĶĵ": 8009,
      "Ġwalking": 8010,
      "Ġzwaait": 8011,
      "Ġzwaaide": 8012,
      "ĠLuc": 8013,
      "Ġallowed": 8014,
      "èļĬ": 8015,
      "Ġdinosaur": 8016,
      "ĠâĤ¬": 8017,
      "ĠknieÃ«n": 8018,
      "ĠValerie": 8019,
      "Ġcomfortable": 8020,
      "Ġhigher": 8021,
      "EEN": 8022,
      "Wacht": 8023,
      "auren": 8024,
      "ieden": 8025,
      "rit": 8026,
      "waard": 8027,
      "èķ": 8028,
      "Ġä¼ģ": 8029,
      "anh": 8030,
      "Ġdam": 8031,
      "Ġdump": 8032,
      "atten": 8033,
      "åĲĽ": 8034,
      "Ġbul": 8035,
      "å°¬": 8036,
      "Ġzilver": 8037,
      "asons": 8038,
      "Ġheus": 8039,
      "èµ¤": 8040,
      "Ġonver": 8041,
      "ĠHA": 8042,
      "three": 8043,
      "çĸ¡": 8044,
      "Ġverte": 8045,
      "æĤĦ": 8046,
      "ĠSara": 8047,
      "ĠKr": 8048,
      "ĠGoed": 8049,
      "allo": 8050,
      "ĠLE": 8051,
      "ĠRaffi": 8052,
      "Ġwhenever": 8053,
      "ç¥¸": 8054,
      "Ġkonijn": 8055,
      "odra": 8056,
      "intig": 8057,
      "Ġwaardoor": 8058,
      "Ġhoef": 8059,
      "elende": 8060,
      "Ġfluit": 8061,
      "AAL": 8062,
      "ĠWeet": 8063,
      "Ġtenminste": 8064,
      "Ġfarm": 8065,
      "Ġgebouw": 8066,
      "Ġtrek": 8067,
      "Ġstopp": 8068,
      "ictor": 8069,
      "Ġwrite": 8070,
      "Ġsmaller": 8071,
      "Ġsterren": 8072,
      "Ġsalary": 8073,
      "Ġgedachten": 8074,
      "Ġå£°": 8075,
      "Ġpiano": 8076,
      "Ġalumin": 8077,
      "Goos": 8078,
      "Meneer": 8079,
      "jam": 8080,
      "oden": 8081,
      "ph": 8082,
      "za": 8083,
      "Ġé£İ": 8084,
      "Ġè´¢": 8085,
      "ĠäºĴ": 8086,
      "ä¸§": 8087,
      "Ġwier": 8088,
      "å®ł": 8089,
      "Ġkoop": 8090,
      "Ġkussen": 8091,
      "orado": 8092,
      "Ġlamp": 8093,
      "Ġpiep": 8094,
      "Ġred": 8095,
      "urs": 8096,
      "icit": 8097,
      "ĠBab": 8098,
      "ĠNag": 8099,
      "outs": 8100,
      "æ¡Ĩ": 8101,
      "ortun": 8102,
      "Ġtrip": 8103,
      "æļ§": 8104,
      "Ġbegreep": 8105,
      "Ġkwart": 8106,
      "Ġagent": 8107,
      "çĭł": 8108,
      "Ġmakk": 8109,
      "Ġbete": 8110,
      "Ġcalling": 8111,
      "Ġgroc": 8112,
      "izer": 8113,
      "èĳĽ": 8114,
      "auwen": 8115,
      "Ġåģ¥": 8116,
      "Ġbased": 8117,
      "Ġkeeping": 8118,
      "ĠåĬ¨": 8119,
      "erklaas": 8120,
      "Ġtelling": 8121,
      "Ġplanning": 8122,
      "çĵ¦": 8123,
      "ennis": 8124,
      "Ġphys": 8125,
      "Ġverzam": 8126,
      "Ġvarken": 8127,
      "Ġretire": 8128,
      "Ġsales": 8129,
      "Ġvoetballen": 8130,
      "Ġpresent": 8131,
      "æĨĭ": 8132,
      "Ġæ»´": 8133,
      "okkie": 8134,
      "Ġfeet": 8135,
      "ĠçĥŃ": 8136,
      "ĠCarol": 8137,
      "Ġdraagt": 8138,
      "ĠJapan": 8139,
      "Ha": 8140,
      "lang": 8141,
      "maybe": 8142,
      "tjes": 8143,
      "è²": 8144,
      "Ġè°Ī": 8145,
      "Ġä¸´": 8146,
      "Ġtong": 8147,
      "ĠåĦ¿": 8148,
      "Ġoef": 8149,
      "Ġker": 8150,
      "Ġtoven": 8151,
      "Ġtowards": 8152,
      "Ġfire": 8153,
      "æĥ¨": 8154,
      "igheid": 8155,
      "Ġstenen": 8156,
      "çĤ®": 8157,
      "çĤī": 8158,
      "èµĭ": 8159,
      "Ġopgel": 8160,
      "Ġmees": 8161,
      "çº¤": 8162,
      "æĭĲ": 8163,
      "çĪ½": 8164,
      "æĤł": 8165,
      "ĠSomm": 8166,
      "ĠAust": 8167,
      "ctors": 8168,
      "ĠJUL": 8169,
      "åĸ½": 8170,
      "Ġzocht": 8171,
      "Ġprov": 8172,
      "ĠOOK": 8173,
      "æŁ±": 8174,
      "ĠLake": 8175,
      "æ·®": 8176,
      "thern": 8177,
      "Ġachteruit": 8178,
      "Ġbusy": 8179,
      "Ġå±ħ": 8180,
      "ĠMarl": 8181,
      "Ġbroers": 8182,
      "Ġgenerally": 8183,
      "Ġcoverage": 8184,
      "ĠONS": 8185,
      "Ġnormaal": 8186,
      "Ġç«ĭ": 8187,
      "leggen": 8188,
      "ĠHouston": 8189,
      "Bij": 8190,
      "People": 8191,
      "SEN": 8192,
      "Which": 8193,
      "bank": 8194,
      "ekt": 8195,
      "jorn": 8196,
      "ties": 8197,
      "ĠéĻį": 8198,
      "Ġçļ®": 8199,
      "Ġterecht": 8200,
      "äº¢": 8201,
      "æĺı": 8202,
      "å°´": 8203,
      "Ġkerk": 8204,
      "orr": 8205,
      "Ġlower": 8206,
      "rees": 8207,
      "Ġeast": 8208,
      "Ġpil": 8209,
      "Ġpush": 8210,
      "owboy": 8211,
      "Ġstelde": 8212,
      "Ġriepen": 8213,
      "seven": 8214,
      "Ġvanavond": 8215,
      "çŃĭ": 8216,
      "Ġä½ı": 8217,
      "ĠWOR": 8218,
      "ĠBer": 8219,
      "Ġsoft": 8220,
      "ĠKit": 8221,
      "aster": 8222,
      "ĠGR": 8223,
      "éŁ¦": 8224,
      "ĠåĪĩ": 8225,
      "Ġtri": 8226,
      "Ġonderz": 8227,
      "ĠOpa": 8228,
      "Ġfinding": 8229,
      "Ġmooiste": 8230,
      "Ġbezorgd": 8231,
      "Ġplants": 8232,
      "place": 8233,
      "ĠSnel": 8234,
      "Ġcooking": 8235,
      "Ġgrandmother": 8236,
      "Ġmaakten": 8237,
      "Ġopportun": 8238,
      "Ġfietsen": 8239,
      "Ġsavings": 8240,
      "Ġziekenhuis": 8241,
      "koek": 8242,
      "lvan": 8243,
      "uf": 8244,
      "vallen": 8245,
      "waar": 8246,
      "ĠéĢģ": 8247,
      "Ġtur": 8248,
      "any": 8249,
      "Ġdet": 8250,
      "recht": 8251,
      "åķª": 8252,
      "å¸½": 8253,
      "Ġcaf": 8254,
      "Ġalone": 8255,
      "æĦī": 8256,
      "urity": 8257,
      "ĠTW": 8258,
      "æ±ģ": 8259,
      "ĠWAS": 8260,
      "ĠAs": 8261,
      "geet": 8262,
      "okje": 8263,
      "ĠJer": 8264,
      "ĠKAN": 8265,
      "ĠPR": 8266,
      "ç¨ļ": 8267,
      "ĠCity": 8268,
      "erty": 8269,
      "Ġwaarin": 8270,
      "Ġconvers": 8271,
      "æħ¨": 8272,
      "æħķ": 8273,
      "æĳĺ": 8274,
      "igenlijk": 8275,
      "çĺŁ": 8276,
      "Ġkeeps": 8277,
      "Ġwachtte": 8278,
      "Ġverloren": 8279,
      "Ġstukken": 8280,
      "Ġstappen": 8281,
      "Ġimpro": 8282,
      "Ġleggen": 8283,
      "Ġspeelde": 8284,
      "Ġsoldaat": 8285,
      "Ġç©º": 8286,
      "Ġontdekt": 8287,
      "Ġsurprised": 8288,
      "Ġfantast": 8289,
      "ssef": 8290,
      "Ġfuture": 8291,
      "ĠJULLIE": 8292,
      "hip": 8293,
      "yle": 8294,
      "Ġè´Ń": 8295,
      "ence": 8296,
      "Ġsus": 8297,
      "å°¸": 8298,
      "Ġkok": 8299,
      "ander": 8300,
      "alo": 8301,
      "Ġæĳ": 8302,
      "aartje": 8303,
      "Ġfel": 8304,
      "æĥ¹": 8305,
      "åİ¦": 8306,
      "Ġknop": 8307,
      "èĩ£": 8308,
      "Ġheart": 8309,
      "èµģ": 8310,
      "çİ²": 8311,
      "çİĽ": 8312,
      "Ġwhite": 8313,
      "ĠDIT": 8314,
      "uro": 8315,
      "çĹķ": 8316,
      "Ġmezelf": 8317,
      "çī¢": 8318,
      "æĮ¤": 8319,
      "æĮ¨": 8320,
      "Ġåħį": 8321,
      "ĠSouth": 8322,
      "ĠKokkie": 8323,
      "ĠVader": 8324,
      "Ġups": 8325,
      "Ġdank": 8326,
      "Ġhelpt": 8327,
      "éĵľ": 8328,
      "Ġhasn": 8329,
      "Ġgeleerd": 8330,
      "Ġoffer": 8331,
      "ELIJK": 8332,
      "Ġontsn": 8333,
      "èĳ¡": 8334,
      "ĠState": 8335,
      "Ġserious": 8336,
      "Ġæ³¢": 8337,
      "Ġveget": 8338,
      "ĠFran": 8339,
      "Ġrelat": 8340,
      "Ġparticip": 8341,
      "ĠElizabeth": 8342,
      "Ġwoonde": 8343,
      "ĠåĿĲ": 8344,
      "Alle": 8345,
      "Ġswim": 8346,
      "Ġadvant": 8347,
      "ĠJohan": 8348,
      "Ġheerlijk": 8349,
      "Ġautomat": 8350,
      "ĠMexico": 8351,
      "Ġdwerg": 8352,
      "Ġknipoog": 8353,
      "ĠAlles": 8354,
      "ĠSarah": 8355,
      "Ġzenuwachtig": 8356,
      "Zie": 8357,
      "aien": 8358,
      "aide": 8359,
      "bas": 8360,
      "bare": 8361,
      "doek": 8362,
      "ha": 8363,
      "metje": 8364,
      "Ġäº¬": 8365,
      "ĠéħĴ": 8366,
      "Ġä¿ĥ": 8367,
      "Ġtape": 8368,
      "Ġaver": 8369,
      "Ġsj": 8370,
      "Ġghe": 8371,
      "Ġgord": 8372,
      "Ġgames": 8373,
      "Ġkent": 8374,
      "Ġkab": 8375,
      "Ġeuro": 8376,
      "Ġham": 8377,
      "igt": 8378,
      "Ġstroom": 8379,
      "çĽĨ": 8380,
      "urday": 8381,
      "oemie": 8382,
      "åĵĢ": 8383,
      "åĵŁ": 8384,
      "åĢ¡": 8385,
      "ĠHal": 8386,
      "Ġtek": 8387,
      "Ġvervol": 8388,
      "Ġverkering": 8389,
      "ĠWit": 8390,
      "ĠBoven": 8391,
      "Ġdief": 8392,
      "Ġneg": 8393,
      "è¶Ł": 8394,
      "çĥ«": 8395,
      "laat": 8396,
      "asten": 8397,
      "ç¦º": 8398,
      "ĠLana": 8399,
      "é©³": 8400,
      "ĠFren": 8401,
      "Ġvogels": 8402,
      "Ġvolgen": 8403,
      "achel": 8404,
      "Zeg": 8405,
      "Ġappe": 8406,
      "Ġdraaien": 8407,
      "Ġsystems": 8408,
      "ibly": 8409,
      "Ġrechts": 8410,
      "Ġverzinnen": 8411,
      "Ġmedic": 8412,
      "sylvan": 8413,
      "Ġschreeuwt": 8414,
      "Ġvuil": 8415,
      "ĠOnder": 8416,
      "Ġindividual": 8417,
      "ĠSalim": 8418,
      "Ġchannel": 8419,
      "Ġenthous": 8420,
      "Ġmakkelijk": 8421,
      "Zullen": 8422,
      "cri": 8423,
      "form": 8424,
      "ga": 8425,
      "gg": 8426,
      "king": 8427,
      "kele": 8428,
      "loos": 8429,
      "sm": 8430,
      "Ġä¿¡": 8431,
      "Ġæľį": 8432,
      "Ġéĺ³": 8433,
      "Ġè¿Ŀ": 8434,
      "Ġä¹ĺ": 8435,
      "inc": 8436,
      "Ġoth": 8437,
      "Ġswe": 8438,
      "è¯ŀ": 8439,
      "Ġkennen": 8440,
      "Ġkikker": 8441,
      "Ġvorm": 8442,
      "orst": 8443,
      "Ġpict": 8444,
      "aling": 8445,
      "æĸ¥": 8446,
      "Ġstates": 8447,
      "ilen": 8448,
      "ury": 8449,
      "Ġvanmiddag": 8450,
      "Ġmeen": 8451,
      "ĠMart": 8452,
      "inkman": 8453,
      "ĠSund": 8454,
      "ĠNatuurlijk": 8455,
      "æį·": 8456,
      "Ġovert": 8457,
      "Ġoverle": 8458,
      "ĠViet": 8459,
      "ruim": 8460,
      "reef": 8461,
      "ederal": 8462,
      "Nog": 8463,
      "Ġzwij": 8464,
      "Ġvolwassen": 8465,
      "Ġflow": 8466,
      "çĮĽ": 8467,
      "aterdag": 8468,
      "ressed": 8469,
      "Ġthird": 8470,
      "orpor": 8471,
      "Ġrepair": 8472,
      "Ġlaws": 8473,
      "Ġverdween": 8474,
      "Ã¡Ã¡": 8475,
      "prob": 8476,
      "Ġcurrent": 8477,
      "Ġbills": 8478,
      "Ġprotest": 8479,
      "Ġkippen": 8480,
      "Ġstories": 8481,
      "Ġvideo": 8482,
      "ĠSaturday": 8483,
      "ĠDrake": 8484,
      "Ġmountains": 8485,
      "ĠMaryland": 8486,
      "Ġaluminum": 8487,
      "Ġothers": 8488,
      "AST": 8489,
      "Hi": 8490,
      "Help": 8491,
      "UG": 8492,
      "UM": 8493,
      "Ver": 8494,
      "have": 8495,
      "log": 8496,
      "ras": 8497,
      "tussen": 8498,
      "va": 8499,
      "zend": 8500,
      "Ġè¯ģ": 8501,
      "Ġtaught": 8502,
      "ä»¿": 8503,
      "Ġsent": 8504,
      "Ġsong": 8505,
      "oura": 8506,
      "Ġkamp": 8507,
      "Ġdepart": 8508,
      "Ġeiland": 8509,
      "Ġcru": 8510,
      "iest": 8511,
      "Ġran": 8512,
      "Ġrough": 8513,
      "keer": 8514,
      "Ġreun": 8515,
      "Ġvanuit": 8516,
      "raid": 8517,
      "Ġgol": 8518,
      "ĠAchter": 8519,
      "Ġvooruit": 8520,
      "Ġspre": 8521,
      "lazen": 8522,
      "ĠåĲ´": 8523,
      "Ġtwaalf": 8524,
      "èĲĿ": 8525,
      "wege": 8526,
      "umb": 8527,
      "Ġklopt": 8528,
      "Ġå½¢": 8529,
      "Ġboze": 8530,
      "Ġæį¢": 8531,
      "Ġbeginning": 8532,
      "Ġnaden": 8533,
      "Ġgezet": 8534,
      "ĠæĿ¨": 8535,
      "Ġroze": 8536,
      "åĭĭ": 8537,
      "ĠMette": 8538,
      "Ġnights": 8539,
      "ĠALLE": 8540,
      "ĠVera": 8541,
      "Ġstraf": 8542,
      "ĠUniversity": 8543,
      "Ġmompelt": 8544,
      "Ġinvasion": 8545,
      "Ġhobby": 8546,
      "Ġbeweging": 8547,
      "ĠLindsey": 8548,
      "sylvania": 8549,
      "Dummie": 8550,
      "bal": 8551,
      "ned": 8552,
      "ration": 8553,
      "was": 8554,
      "Ġèį¯": 8555,
      "Ġä¼ĺ": 8556,
      "Ġèµ¶": 8557,
      "Ġduurde": 8558,
      "Ġwolf": 8559,
      "ature": 8560,
      "atter": 8561,
      "Ġiedere": 8562,
      "stru": 8563,
      "stuk": 8564,
      "Ġtom": 8565,
      "eding": 8566,
      "Ġfill": 8567,
      "èĢį": 8568,
      "åĬ£": 8569,
      "Ġenc": 8570,
      "å¯¨": 8571,
      "Ġstelt": 8572,
      "Ġrijk": 8573,
      "Ġrivier": 8574,
      "Ġregel": 8575,
      "Ġforget": 8576,
      "olle": 8577,
      "unate": 8578,
      "Ġann": 8579,
      "è¶ģ": 8580,
      "ĠPots": 8581,
      "ruk": 8582,
      "Ġnogal": 8583,
      "çĬ¹": 8584,
      "ĠCor": 8585,
      "ĠRani": 8586,
      "ulation": 8587,
      "onest": 8588,
      "ourse": 8589,
      "erende": 8590,
      "Ġafraid": 8591,
      "èħķ": 8592,
      "ekker": 8593,
      "æĳĶ": 8594,
      "Ġbetover": 8595,
      "Ġtrad": 8596,
      "spre": 8597,
      "Ġleeft": 8598,
      "Ġhelped": 8599,
      "Ġbleven": 8600,
      "ĠAngel": 8601,
      "ĠYoussef": 8602,
      "Ġpassen": 8603,
      "Ġæ¹¿": 8604,
      "Ġrolde": 8605,
      "Ġaffect": 8606,
      "Ġhotel": 8607,
      "Ġgirls": 8608,
      "Ġbevr": 8609,
      "ĠOmdat": 8610,
      "Ġhobbies": 8611,
      "Ġorganiz": 8612,
      "Ġwoedend": 8613,
      "Ġlinks": 8614,
      "ĠFreddy": 8615,
      "Probably": 8616,
      "Ġapparently": 8617,
      "Echt": 8618,
      "IR": 8619,
      "boel": 8620,
      "ias": 8621,
      "rass": 8622,
      "sure": 8623,
      "Ġé¥®": 8624,
      "Ġwoest": 8625,
      "æľµ": 8626,
      "Ġsele": 8627,
      "ä¹Ķ": 8628,
      "åħľ": 8629,
      "Ġpoten": 8630,
      "Ġpurch": 8631,
      "ĠæĦ¿": 8632,
      "Ġinve": 8633,
      "asse": 8634,
      "omething": 8635,
      "ĠçĨ": 8636,
      "å¯¸": 8637,
      "æİĺ": 8638,
      "è¾±": 8639,
      "urk": 8640,
      "çĲ¢": 8641,
      "Ġä½Ľ": 8642,
      "Ġschad": 8643,
      "åŁĥ": 8644,
      "ç®Ń": 8645,
      "ĠBR": 8646,
      "ĠPh": 8647,
      "ĠPeter": 8648,
      "ĠVictor": 8649,
      "èĪ°": 8650,
      "ĠGuus": 8651,
      "èĲĦ": 8652,
      "ĠåĪ¶": 8653,
      "Ġdire": 8654,
      "EREN": 8655,
      "èĮĤ": 8656,
      "ipl": 8657,
      "Ġgezellig": 8658,
      "Ġfloor": 8659,
      "Ġloan": 8660,
      "ç¢³": 8661,
      "Ġontmoet": 8662,
      "ĠStella": 8663,
      "Ġgrapp": 8664,
      "Ġeasily": 8665,
      "Ġvechten": 8666,
      "è¸¢": 8667,
      "èĵĦ": 8668,
      "Ġtonight": 8669,
      "iekem": 8670,
      "Ġlimit": 8671,
      "Ġartic": 8672,
      "Ġschilderij": 8673,
      "Ġeconomy": 8674,
      "Ġvakantie": 8675,
      "Ġcharact": 8676,
      "Ġverschrikkelijk": 8677,
      "Ġgrijns": 8678,
      "ĠPennsylvania": 8679,
      "ĠLucas": 8680,
      "Ġwierp": 8681,
      "Ġaverage": 8682,
      "BE": 8683,
      "Kun": 8684,
      "bru": 8685,
      "dd": 8686,
      "eur": 8687,
      "fden": 8688,
      "uizen": 8689,
      "yl": 8690,
      "Ġè½¬": 8691,
      "äº©": 8692,
      "ä»Ļ": 8693,
      "Ġhonest": 8694,
      "Ġwen": 8695,
      "ouse": 8696,
      "Ġbouw": 8697,
      "Ġkil": 8698,
      "stoel": 8699,
      "itie": 8700,
      "esley": 8701,
      "Ġç¦ģ": 8702,
      "åİ¢": 8703,
      "ĠDU": 8704,
      "ams": 8705,
      "æ³½": 8706,
      "ĠHel": 8707,
      "oorten": 8708,
      "ç½ķ": 8709,
      "Ġåħ¥": 8710,
      "ĠBjorn": 8711,
      "Ġå®ĺ": 8712,
      "Ġspreken": 8713,
      "èĪħ": 8714,
      "ists": 8715,
      "Ġsudden": 8716,
      "ended": 8717,
      "...\"": 8718,
      "Ġblad": 8719,
      "ederik": 8720,
      "Ġslow": 8721,
      "Ġactive": 8722,
      "ĠæĬķ": 8723,
      "Ġgevraagd": 8724,
      "Ġraakte": 8725,
      "ç¢ĳ": 8726,
      "èĳ¬": 8727,
      "Ġpolicy": 8728,
      "æĵħ": 8729,
      "Ġruikt": 8730,
      "Ġstapel": 8731,
      "Ġoldest": 8732,
      "voorbeeld": 8733,
      "Ġstraight": 8734,
      "Ġgardening": 8735,
      "æĨ¾": 8736,
      "Ġobviously": 8737,
      "ĠPoeh": 8738,
      "ĠColorado": 8739,
      "Absolutely": 8740,
      "Ġconvict": 8741,
      "Ġeventually": 8742,
      "Ġleuke": 8743,
      "Volgens": 8744,
      "Ġattitude": 8745,
      "ĠCarolina": 8746,
      "fish": 8747,
      "morgen": 8748,
      "ym": 8749,
      "zin": 8750,
      "Ãī": 8751,
      "ĠéĴ±": 8752,
      "Ġä»į": 8753,
      "Ġtour": 8754,
      "åıī": 8755,
      "Ġvie": 8756,
      "Ġlar": 8757,
      "Ġdebt": 8758,
      "Ġtoon": 8759,
      "Ġcit": 8760,
      "Ġfout": 8761,
      "æĬĦ": 8762,
      "Ġweird": 8763,
      "è´©": 8764,
      "å½Ń": 8765,
      "ĠHar": 8766,
      "idde": 8767,
      "ellow": 8768,
      "æµħ": 8769,
      "Ġåħĥ": 8770,
      "Ġåħī": 8771,
      "ĠEindelijk": 8772,
      "Ġforce": 8773,
      "apper": 8774,
      "Ġdiepe": 8775,
      "ĠPer": 8776,
      "ĠGoemie": 8777,
      "æŁ´": 8778,
      "ĠLauren": 8779,
      "Ġplus": 8780,
      "Ġelder": 8781,
      "Ġvoelen": 8782,
      "ĠæĢ§": 8783,
      "spel": 8784,
      "Ġdragen": 8785,
      "Ġadult": 8786,
      "Ġcontribut": 8787,
      "Ġplez": 8788,
      "ĠJanine": 8789,
      "Ġdurft": 8790,
      "Ġdurfde": 8791,
      "Ġthirteen": 8792,
      "Ġç½Ĺ": 8793,
      "Ġverschillende": 8794,
      "ĠGEEN": 8795,
      "middels": 8796,
      "Ġzuchtte": 8797,
      "Ġwolken": 8798,
      "ĠMevrouw": 8799,
      "Ġongeveer": 8800,
      "ĠåĺŁ": 8801,
      "ĠGerman": 8802,
      "Ġvorige": 8803,
      "Ġactivities": 8804,
      "Ġuiteindelijk": 8805,
      "ĠEmma": 8806,
      "zettend": 8807,
      "ĠMarloes": 8808,
      "Ar": 8809,
      "CT": 8810,
      "Ch": 8811,
      "Heel": 8812,
      "LES": 8813,
      "halen": 8814,
      "haps": 8815,
      "lt": 8816,
      "ole": 8817,
      "ĠéĽ¶": 8818,
      "ĠèĤº": 8819,
      "inst": 8820,
      "Ġwangen": 8821,
      "Ġwanh": 8822,
      "Ġsinds": 8823,
      "Ġmopp": 8824,
      "ouch": 8825,
      "Ġburn": 8826,
      "Ġgilt": 8827,
      "Ġgilde": 8828,
      "Ġvet": 8829,
      "Ġcult": 8830,
      "Ġcamera": 8831,
      "Ġstuur": 8832,
      "issen": 8833,
      "Ġtemp": 8834,
      "Ġjump": 8835,
      "derde": 8836,
      "æµ¦": 8837,
      "ĠMan": 8838,
      "ĠAf": 8839,
      "apje": 8840,
      "Ġvoorhoofd": 8841,
      "Ġnotice": 8842,
      "èĬ¬": 8843,
      "emen": 8844,
      "ĠLeen": 8845,
      "ĠLuna": 8846,
      "èī³": 8847,
      "Ġafsche": 8848,
      "Ġconf": 8849,
      "Ġcompla": 8850,
      "Ġvolgens": 8851,
      "Ġåĵİ": 8852,
      "Ġstarts": 8853,
      "æ¢¨": 8854,
      "wijs": 8855,
      "Ġpaarden": 8856,
      "Ġgroen": 8857,
      "Ġteams": 8858,
      "Ġchanging": 8859,
      "ĠPlotseling": 8860,
      "Ġwords": 8861,
      "Ġnormal": 8862,
      "Ġvlees": 8863,
      "Ġbriefje": 8864,
      "Ġvreemde": 8865,
      "Ġhuman": 8866,
      "Ġç®¡": 8867,
      "Ġsentence": 8868,
      "Ġproperty": 8869,
      "Ġallerlei": 8870,
      "ĠæŁĲ": 8871,
      "Ġpositive": 8872,
      "ĠçķĻ": 8873,
      "Ġstopped": 8874,
      "EY": 8875,
      "Geen": 8876,
      "Le": 8877,
      "ZEN": 8878,
      "baard": 8879,
      "jongen": 8880,
      "lant": 8881,
      "wit": 8882,
      "Ġéĵ¶": 8883,
      "Ġhy": 8884,
      "Ġsist": 8885,
      "Ġsick": 8886,
      "Ġsolut": 8887,
      "Ġbody": 8888,
      "Ġkiezen": 8889,
      "åįľ": 8890,
      "Ġlau": 8891,
      "aly": 8892,
      "aarden": 8893,
      "æĿŀ": 8894,
      "Ġcad": 8895,
      "Ġcorn": 8896,
      "ĠçĮ": 8897,
      "åĮ¹": 8898,
      "åĩĿ": 8899,
      "Ġwezen": 8900,
      "Ġstro": 8901,
      "illa": 8902,
      "è·ª": 8903,
      "oeide": 8904,
      "éĽ¾": 8905,
      "entjes": 8906,
      "Ġschieten": 8907,
      "apte": 8908,
      "Ġæī¿": 8909,
      "Ġspook": 8910,
      "Ġzover": 8911,
      "ĠPan": 8912,
      "å¢¨": 8913,
      "rupt": 8914,
      "Ġmum": 8915,
      "ç²ĺ": 8916,
      "é»ı": 8917,
      "è±«": 8918,
      "Ġplat": 8919,
      "Ġdied": 8920,
      "ppie": 8921,
      "Ġzware": 8922,
      "resident": 8923,
      "é¸Ń": 8924,
      "Ġhuisje": 8925,
      "æ¤ħ": 8926,
      "èĨĢ": 8927,
      "Ġhelping": 8928,
      "Ġkroop": 8929,
      "ĠWEER": 8930,
      "broek": 8931,
      "é¹ı": 8932,
      "ÃŃj": 8933,
      "Ġzwemmen": 8934,
      "Ġissues": 8935,
      "Ġgrijze": 8936,
      "Ġgevaarlijk": 8937,
      "ĠPrins": 8938,
      "Ġbottles": 8939,
      "ĠKonijn": 8940,
      "ĠRichards": 8941,
      "ĠSunday": 8942,
      "Ġelderly": 8943,
      "LIJK": 8944,
      "SE": 8945,
      "Sometimes": 8946,
      "bage": 8947,
      "wacht": 8948,
      "Ġä¼ł": 8949,
      "Ġéģĩ": 8950,
      "Ġweap": 8951,
      "Ġmuts": 8952,
      "ijven": 8953,
      "å°º": 8954,
      "Ġku": 8955,
      "Ġkitch": 8956,
      "Ġlok": 8957,
      "Ġleest": 8958,
      "ones": 8959,
      "Ġincl": 8960,
      "owl": 8961,
      "isp": 8962,
      "æµı": 8963,
      "ĠTER": 8964,
      "Ġnaartoe": 8965,
      "ĠBoy": 8966,
      "æĻĭ": 8967,
      "geh": 8968,
      "Ġå®¢": 8969,
      "ç«¹": 8970,
      "èĦĬ": 8971,
      "å²©": 8972,
      "ĠLou": 8973,
      "Ġwelke": 8974,
      "Ġshop": 8975,
      "ERD": 8976,
      "Ġcarp": 8977,
      "åł¡": 8978,
      "Ġflat": 8979,
      "Ġfles": 8980,
      "Ġarme": 8981,
      "Ġblijf": 8982,
      "Ġheleboel": 8983,
      "ĠåĬŀ": 8984,
      "Ġwondering": 8985,
      "ĠAlsof": 8986,
      "Ġwijs": 8987,
      "ĠBrinkman": 8988,
      "Ġvissen": 8989,
      "Ġliefde": 8990,
      "Ġspec": 8991,
      "ĠFloor": 8992,
      "Ġpastoor": 8993,
      "Ġduwt": 8994,
      "Ġgebruikt": 8995,
      "ĠQuinn": 8996,
      "Ġmagazine": 8997,
      "ĠSinterklaas": 8998,
      "Anyway": 8999,
      "Ġchocol": 9000,
      "Ġoccasionally": 9001,
      "Ġå©ļ": 9002,
      "Ġplezier": 9003,
      "Sch": 9004,
      "gun": 9005,
      "ially": 9006,
      "ju": 9007,
      "ns": 9008,
      "rant": 9009,
      "ĠèĻļ": 9010,
      "Ġåĭ": 9011,
      "Ġsen": 9012,
      "Ġsou": 9013,
      "Ġmes": 9014,
      "Ġmile": 9015,
      "Ġbil": 9016,
      "Ġzaterdag": 9017,
      "Ġkooi": 9018,
      "ĠIna": 9019,
      "Ġeieren": 9020,
      "Ġeating": 9021,
      "Ġæ¥": 9022,
      "ĠçĬ": 9023,
      "Ġstel": 9024,
      "çĤĸ": 9025,
      "Ġhey": 9026,
      "Ġdoden": 9027,
      "Ġreag": 9028,
      "Ġreken": 9029,
      "æķ²": 9030,
      "oeid": 9031,
      "Ġvanzelf": 9032,
      "Ġgeit": 9033,
      "derij": 9034,
      "å§ļ": 9035,
      "ĠZon": 9036,
      "ĠNU": 9037,
      "angers": 9038,
      "Ġprint": 9039,
      "ĠCan": 9040,
      "aalt": 9041,
      "reekt": 9042,
      "æ¹Ľ": 9043,
      "Ġshape": 9044,
      "Ġdiv": 9045,
      "Ġcareer": 9046,
      "Ġtegenover": 9047,
      "Ġhoeven": 9048,
      "çĮ´": 9049,
      "é¸£": 9050,
      "Ġperhaps": 9051,
      "Ġdraw": 9052,
      "Ġontzettend": 9053,
      "Ġadmin": 9054,
      "Ġgebracht": 9055,
      "plein": 9056,
      "Ġscience": 9057,
      "Ġwisten": 9058,
      "ART": 9059,
      "èĴ¸": 9060,
      "strid": 9061,
      "Ġhoping": 9062,
      "ochtend": 9063,
      "éŃĶ": 9064,
      "å´©": 9065,
      "è¹¦": 9066,
      "Ġstruik": 9067,
      "Ġviol": 9068,
      "Ġmeestal": 9069,
      "Ġdoubt": 9070,
      "Ġbegrijp": 9071,
      "Ġrequire": 9072,
      "Ġfinancial": 9073,
      "ĠNEW": 9074,
      "Ġcorrect": 9075,
      "Ġç³ĸ": 9076,
      "ĠBoing": 9077,
      "Ġenthousiast": 9078,
      "Ġdirecteur": 9079,
      "WE": 9080,
      "da": 9081,
      "fet": 9082,
      "wise": 9083,
      "é³": 9084,
      "Ġtouch": 9085,
      "Ġå¨": 9086,
      "Ġmention": 9087,
      "reg": 9088,
      "sters": 9089,
      "edankt": 9090,
      "Ġjar": 9091,
      "Ġknal": 9092,
      "çĽ²": 9093,
      "è·µ": 9094,
      "ĠDu": 9095,
      "ĠDuit": 9096,
      "Ġrece": 9097,
      "Ġopd": 9098,
      "oebel": 9099,
      "æŃ§": 9100,
      "ello": 9101,
      "Ġveront": 9102,
      "iculous": 9103,
      "root": 9104,
      "æµĨ": 9105,
      "Ġmoving": 9106,
      "æ¶Į": 9107,
      "ikten": 9108,
      "Ġalsjeblieft": 9109,
      "Ġzoen": 9110,
      "ĠPat": 9111,
      "Ġchoose": 9112,
      "èĻĲ": 9113,
      "ĠRea": 9114,
      "Ġlekk": 9115,
      "Ġmannetje": 9116,
      "ertel": 9117,
      "ĠFor": 9118,
      "åŀ«": 9119,
      "å¨ľ": 9120,
      "ANT": 9121,
      "Ġkidding": 9122,
      "Ġlangu": 9123,
      "é¾Ł": 9124,
      "ĠæĢķ": 9125,
      "Ġhoorden": 9126,
      "ĠAnders": 9127,
      "Ġstilte": 9128,
      "Ġåī©": 9129,
      "ĠæĻº": 9130,
      "orps": 9131,
      "Ġçº½": 9132,
      "Ġposition": 9133,
      "Ġverstopt": 9134,
      "Ġboter": 9135,
      "Ġstandard": 9136,
      "Ġengine": 9137,
      "Ġridiculous": 9138,
      "Ġheette": 9139,
      "Ġnormally": 9140,
      "Ġzomer": 9141,
      "ĠfeeÃ«n": 9142,
      "Ġpattern": 9143,
      "Ġmainly": 9144,
      "Ġzuster": 9145,
      "ĠAntonio": 9146,
      "adelief": 9147,
      "Ġaerobics": 9148,
      "è²Į": 9149,
      "Ġtovenaar": 9150,
      "Ġcadea": 9151,
      "Ġkitchen": 9152,
      "CE": 9153,
      "iaan": 9154,
      "lotte": 9155,
      "lopig": 9156,
      "mo": 9157,
      "met": 9158,
      "roeg": 9159,
      "wan": 9160,
      "ĠèĲ¥": 9161,
      "Ġä¾¿": 9162,
      "ĠçĶ³": 9163,
      "Ġtick": 9164,
      "erden": 9165,
      "ino": 9166,
      "Ġwc": 9167,
      "Ġwang": 9168,
      "atory": 9169,
      "Ġkust": 9170,
      "Ġvul": 9171,
      "Ġæĩ": 9172,
      "Ġcross": 9173,
      "Ġfederal": 9174,
      "æī®": 9175,
      "æīĳ": 9176,
      "æĬ¹": 9177,
      "Ġstiekem": 9178,
      "çľī": 9179,
      "Ġopz": 9180,
      "å¦¨": 9181,
      "Ġverf": 9182,
      "Ġverband": 9183,
      "raf": 9184,
      "ĠMoeder": 9185,
      "inken": 9186,
      "Ġä½į": 9187,
      "Ġerover": 9188,
      "ĠZodra": 9189,
      "éĥİ": 9190,
      "Ġnest": 9191,
      "irk": 9192,
      "ĠJust": 9193,
      "ĠåįĬ": 9194,
      "å©ī": 9195,
      "ĠLen": 9196,
      "éħ·": 9197,
      "ĠCowboy": 9198,
      "Ġsumm": 9199,
      "éª¤": 9200,
      "ĠåĪĻ": 9201,
      "schoenen": 9202,
      "Ġklok": 9203,
      "rijs": 9204,
      "inderen": 9205,
      "Ġthank": 9206,
      "eph": 9207,
      "Ġuniversity": 9208,
      "Ġcontact": 9209,
      "èĸı": 9210,
      "Ġæ°¸": 9211,
      "Ġç§¯": 9212,
      "ç£ģ": 9213,
      "Ġverbazing": 9214,
      "Ġkring": 9215,
      "ĠMarc": 9216,
      "ĠThor": 9217,
      "Ġinstance": 9218,
      "ĠFrans": 9219,
      "Ġç¥ŀ": 9220,
      "Ġincred": 9221,
      "Ġvlieger": 9222,
      "Ġbehalve": 9223,
      "Ġgestolen": 9224,
      "Ġopgewonden": 9225,
      "Ġplanten": 9226,
      "é¹¿": 9227,
      "Ġvalue": 9228,
      "Ġeffort": 9229,
      "Ġtekening": 9230,
      "Ġpiece": 9231,
      "Ġassist": 9232,
      "ĠSanne": 9233,
      "vallig": 9234,
      "Ġfolks": 9235,
      "ummies": 9236,
      "ĠDiederik": 9237,
      "Ġspannend": 9238,
      "Au": 9239,
      "Dank": 9240,
      "GT": 9241,
      "TER": 9242,
      "Why": 9243,
      "geld": 9244,
      "hoe": 9245,
      "nine": 9246,
      "rom": 9247,
      "tto": 9248,
      "zaal": 9249,
      "ĠèĪª": 9250,
      "Ġäºĳ": 9251,
      "ane": 9252,
      "Ġhok": 9253,
      "ining": 9254,
      "Ġmic": 9255,
      "Ġgym": 9256,
      "Ġkorte": 9257,
      "æĹĭ": 9258,
      "Ġee": 9259,
      "asing": 9260,
      "Ġcorpor": 9261,
      "å·¾": 9262,
      "Ġenkele": 9263,
      "å¯¿": 9264,
      "æĢľ": 9265,
      "ooft": 9266,
      "Ġbep": 9267,
      "Ġstoep": 9268,
      "ijntje": 9269,
      "Ġrap": 9270,
      "Ġrijdt": 9271,
      "Ġreasons": 9272,
      "æĶĢ": 9273,
      "ĠHad": 9274,
      "ĠHOU": 9275,
      "åīĳ": 9276,
      "ĠTijm": 9277,
      "ĠWolf": 9278,
      "ĠWesley": 9279,
      "ijker": 9280,
      "ĠBert": 9281,
      "ĠJA": 9282,
      "Ġåįļ": 9283,
      "åĺ±": 9284,
      "ĠPiek": 9285,
      "Ġcannot": 9286,
      "å©Ĭ": 9287,
      "ĠGar": 9288,
      "Ġlege": 9289,
      "Ġtrut": 9290,
      "Ġwanting": 9291,
      "Ġwaarmee": 9292,
      "Ġsneller": 9293,
      "Ġbril": 9294,
      "Ġhands": 9295,
      "ipment": 9296,
      "ildren": 9297,
      "æħĪ": 9298,
      "Ġoffic": 9299,
      "çĮİ": 9300,
      "Ġbetalen": 9301,
      "cious": 9302,
      "Ġhardly": 9303,
      "Ġhals": 9304,
      "Ġouder": 9305,
      "Ġsmal": 9306,
      "Ġraise": 9307,
      "Ġgraf": 9308,
      "Ġpolice": 9309,
      "Ġhalfuur": 9310,
      "Ġæ³¡": 9311,
      "Ġbleek": 9312,
      "ĠåŃĺ": 9313,
      "ollen": 9314,
      "Ġliefst": 9315,
      "Ġhopefully": 9316,
      "Ġgarbage": 9317,
      "Ġpubliek": 9318,
      "Ġhondje": 9319,
      "Ġlistening": 9320,
      "Ġgemeen": 9321,
      "Ġgroups": 9322,
      "Ġentertain": 9323,
      "Ġmodder": 9324,
      "Ġcondition": 9325,
      "Ġvoorstellen": 9326,
      "Ġequipment": 9327,
      "Ġprobleem": 9328,
      "Ġengineering": 9329,
      "Ġhospital": 9330,
      "Ġextrem": 9331,
      "Ġmeedoen": 9332,
      "Ġvleugels": 9333,
      "Ġopportunity": 9334,
      "Ġadvantage": 9335,
      "Ġflowers": 9336,
      "Ġdepartment": 9337,
      "Pr": 9338,
      "gart": 9339,
      "hic": 9340,
      "iers": 9341,
      "uzen": 9342,
      "Ġäº²": 9343,
      "ä»ĩ": 9344,
      "åı¹": 9345,
      "Ġmacht": 9346,
      "Ġborn": 9347,
      "elaar": 9348,
      "åįĵ": 9349,
      "åĳµ": 9350,
      "Ġpool": 9351,
      "edi": 9352,
      "Ġjo": 9353,
      "å¼¥": 9354,
      "igde": 9355,
      "ilige": 9356,
      "isje": 9357,
      "è´¯": 9358,
      "Ġlip": 9359,
      "Ġverle": 9360,
      "Ġvergeet": 9361,
      "Ġschoof": 9362,
      "æ±ķ": 9363,
      "ĠAt": 9364,
      "ctie": 9365,
      "æįŀ": 9366,
      "Ġspread": 9367,
      "ĠOk": 9368,
      "ĠOOM": 9369,
      "ĠåĲī": 9370,
      "Ġmaag": 9371,
      "Ġçİ¯": 9372,
      "oosje": 9373,
      "Ġå¥¥": 9374,
      "Ġsnuit": 9375,
      "Ġsliep": 9376,
      "Ġseat": 9377,
      "Ġzwaard": 9378,
      "Ġtotal": 9379,
      "Ġtotdat": 9380,
      "Ġsmok": 9381,
      "ĠOpeens": 9382,
      "Ġdachten": 9383,
      "mando": 9384,
      "çŀ¬": 9385,
      "ietske": 9386,
      "Ġgerust": 9387,
      "Ġbruine": 9388,
      "ĠåĿĩ": 9389,
      "Ġbrengt": 9390,
      "Ġverkl": 9391,
      "Ġdesign": 9392,
      "Ġrestaurants": 9393,
      "Ġprofessor": 9394,
      "Ġgesprek": 9395,
      "Ġmerken": 9396,
      "Ġvliegtuig": 9397,
      "Ġklimmen": 9398,
      "Ġgrinnikte": 9399,
      "Ġproducts": 9400,
      "Ġzolder": 9401,
      "Ġprofessional": 9402,
      "Ġzielig": 9403,
      "Ġhistory": 9404,
      "Ġseparate": 9405,
      "ĠBabs": 9406,
      "Ġencoura": 9407,
      "Ġmummie": 9408,
      "BEN": 9409,
      "Lies": 9410,
      "UST": 9411,
      "back": 9412,
      "noon": 9413,
      "ove": 9414,
      "Ãº": 9415,
      "Ġ4": 9416,
      "Ġä¸ļ": 9417,
      "Ġè®²": 9418,
      "Ġç»Ħ": 9419,
      "Ġtree": 9420,
      "Ġgooit": 9421,
      "å°ĺ": 9422,
      "rest": 9423,
      "recies": 9424,
      "Ġpau": 9425,
      "asc": 9426,
      "Ġwest": 9427,
      "Ġknij": 9428,
      "illy": 9429,
      "ilio": 9430,
      "Ġride": 9431,
      "æŀļ": 9432,
      "æŀĿ": 9433,
      "ĠHEL": 9434,
      "çºµ": 9435,
      "ops": 9436,
      "ä¾ł": 9437,
      "kennen": 9438,
      "antly": 9439,
      "ĠZonder": 9440,
      "æ±Ľ": 9441,
      "ĠWal": 9442,
      "æ¶ķ": 9443,
      "used": 9444,
      "ĠBeer": 9445,
      "æĻ°": 9446,
      "Ġomlaag": 9447,
      "ĠJas": 9448,
      "ĠPark": 9449,
      "ĠVOL": 9450,
      "èĪĶ": 9451,
      "rue": 9452,
      "Ġsomehow": 9453,
      "ĠLola": 9454,
      "èĭį": 9455,
      "Ġbijvoorbeeld": 9456,
      "Ġleken": 9457,
      "ĠEng": 9458,
      "Ġshare": 9459,
      "èī°": 9460,
      "Ġeverywhere": 9461,
      "Ġdaarmee": 9462,
      "obile": 9463,
      "rijke": 9464,
      "Ġhunting": 9465,
      "Ġhoeveel": 9466,
      "Ġbeloof": 9467,
      "Ġmissen": 9468,
      "Ġontpl": 9469,
      "ĠæĮĩ": 9470,
      "Ġscar": 9471,
      "Ġlegal": 9472,
      "Ġnumbers": 9473,
      "ĠFrits": 9474,
      "èĴĤ": 9475,
      "Ġturns": 9476,
      "Ġclassical": 9477,
      "Ġharde": 9478,
      "Ã³Ã³": 9479,
      "Ġkapitein": 9480,
      "Ġresult": 9481,
      "Ġmotiv": 9482,
      "è¹²": 9483,
      "Ġholt": 9484,
      "Ġhumid": 9485,
      "Ġassum": 9486,
      "Ġresponsibility": 9487,
      "Ġseventies": 9488,
      "ĠSpring": 9489,
      "Ġpiraten": 9490,
      "OBERT": 9491,
      "Kan": 9492,
      "Terwijl": 9493,
      "UIS": 9494,
      "bit": 9495,
      "kop": 9496,
      "uim": 9497,
      "Ġè¯Ŀ": 9498,
      "ĠéĴŁ": 9499,
      "Ġè´µ": 9500,
      "ä¸²": 9501,
      "erv": 9502,
      "Ġzond": 9503,
      "Ġthee": 9504,
      "Ġliter": 9505,
      "stit": 9506,
      "Ġdemon": 9507,
      "Ġpist": 9508,
      "Ġcities": 9509,
      "å¥Ī": 9510,
      "ommen": 9511,
      "Ġitem": 9512,
      "éĩī": 9513,
      "Ġdoctors": 9514,
      "isf": 9515,
      "keken": 9516,
      "åĴĻ": 9517,
      "eek": 9518,
      "ĠDaan": 9519,
      "Ġrechter": 9520,
      "seum": 9521,
      "Ġvangen": 9522,
      "çĹ´": 9523,
      "çī²": 9524,
      "åīª": 9525,
      "æĭ¦": 9526,
      "ĠMIJN": 9527,
      "Ġforward": 9528,
      "ĠTwee": 9529,
      "ĠToorn": 9530,
      "Ġsomm": 9531,
      "Ġvoordeur": 9532,
      "Ġå¤®": 9533,
      "Ġsomeplace": 9534,
      "arter": 9535,
      "Ġå¹¼": 9536,
      "ĠLenn": 9537,
      "Ġsuff": 9538,
      "èĲİ": 9539,
      "ĠEngl": 9540,
      "Ġyours": 9541,
      "Ġmeegenomen": 9542,
      "å¨¥": 9543,
      "stern": 9544,
      "åĤ²": 9545,
      "Ġondertussen": 9546,
      "Ġkeih": 9547,
      "Ġbasket": 9548,
      "Ġmonster": 9549,
      "Does": 9550,
      "Ġprefer": 9551,
      "Ġsixteen": 9552,
      "Ġafternoon": 9553,
      "ĠåĶĲ": 9554,
      "Ġkanten": 9555,
      "Ġzachte": 9556,
      "Ġrechtop": 9557,
      "Ġconcert": 9558,
      "Ġreturn": 9559,
      "ĠJuf": 9560,
      "Ġkapot": 9561,
      "Ġç©¿": 9562,
      "Ġselling": 9563,
      "Ġç®Ģ": 9564,
      "Ġvaker": 9565,
      "Ġlawyers": 9566,
      "bossa": 9567,
      "ĠLaurens": 9568,
      "ĠRichardson": 9569,
      "ĠEnglish": 9570,
      "AB": 9571,
      "ICK": 9572,
      "OD": 9573,
      "Ooh": 9574,
      "Un": 9575,
      "beer": 9576,
      "loop": 9577,
      "nacht": 9578,
      "vast": 9579,
      "è¤Ĳ": 9580,
      "ĠéĻª": 9581,
      "Ġç»´": 9582,
      "ä¸ĳ": 9583,
      "äºķ": 9584,
      "ä»²": 9585,
      "Ġhog": 9586,
      "Ġwou": 9587,
      "Ġwinnen": 9588,
      "Ġmuren": 9589,
      "åħ½": 9590,
      "Ġbike": 9591,
      "Ġkaas": 9592,
      "Ġkende": 9593,
      "Ġvaren": 9594,
      "repen": 9595,
      "Ġinmiddels": 9596,
      "å¹»": 9597,
      "Ġfab": 9598,
      "æĥķ": 9599,
      "vecht": 9600,
      "å¯ĵ": 9601,
      "Ġeend": 9602,
      "Ġzeem": 9603,
      "uter": 9604,
      "Ġbeat": 9605,
      "Ġknown": 9606,
      "Ġroos": 9607,
      "Ġrob": 9608,
      "eeg": 9609,
      "eez": 9610,
      "ĠHow": 9611,
      "ĠHond": 9612,
      "iday": 9613,
      "Ġeraf": 9614,
      "ĠSl": 9615,
      "Ġmochten": 9616,
      "aud": 9617,
      "ersch": 9618,
      "Ġallang": 9619,
      "ĠJam": 9620,
      "ĠOVER": 9621,
      "Ġprima": 9622,
      "ç´Ĭ": 9623,
      "ardon": 9624,
      "ĠCent": 9625,
      "Ġmuseum": 9626,
      "Ġblauw": 9627,
      "Ġrights": 9628,
      "ç¼ł": 9629,
      "Ġafsp": 9630,
      "åŀĦ": 9631,
      "Ġbrie": 9632,
      "Ġslang": 9633,
      "rijven": 9634,
      "Ġkunst": 9635,
      "ively": 9636,
      "ĠåĨ¬": 9637,
      "Ġcompet": 9638,
      "åłª": 9639,
      "berg": 9640,
      "Ġkindergart": 9641,
      "Ġlux": 9642,
      "Ġnetjes": 9643,
      "Ġtrein": 9644,
      "velend": 9645,
      "Ġleefden": 9646,
      "Ġsixties": 9647,
      "ofte": 9648,
      "Ġbrede": 9649,
      "Ġmilk": 9650,
      "Ġrelated": 9651,
      "Ġrepla": 9652,
      "Ġschreef": 9653,
      "Ġpolitics": 9654,
      "ĠAmericans": 9655,
      "Ġmajority": 9656,
      "Ġgeheime": 9657,
      "Ġachteren": 9658,
      "Ġpossibly": 9659,
      "Ġpainting": 9660,
      "Ġhorrible": 9661,
      "orrebaard": 9662,
      "Ġbrulde": 9663,
      "Ġaandacht": 9664,
      "Ġgrocery": 9665,
      "ĠSommige": 9666,
      "ĠVietnam": 9667,
      "Ġnadenken": 9668,
      "IP": 9669,
      "Very": 9670,
      "Zou": 9671,
      "Zal": 9672,
      "by": 9673,
      "bren": 9674,
      "did": 9675,
      "ka": 9676,
      "zien": 9677,
      "Ġè®¾": 9678,
      "Ġäº«": 9679,
      "Ġä¿Ħ": 9680,
      "ening": 9681,
      "Ġtellen": 9682,
      "anken": 9683,
      "Ġwaa": 9684,
      "Ġaud": 9685,
      "Ġsau": 9686,
      "Ġbaard": 9687,
      "Ġvia": 9688,
      "orge": 9689,
      "rein": 9690,
      "Ġpru": 9691,
      "Ġcart": 9692,
      "Ġcab": 9693,
      "Ġhair": 9694,
      "iging": 9695,
      "åº¸": 9696,
      "éĢ»": 9697,
      "ises": 9698,
      "ĠDummies": 9699,
      "æķĮ": 9700,
      "éģ®": 9701,
      "urf": 9702,
      "æŀķ": 9703,
      "akers": 9704,
      "Ġverj": 9705,
      "ĠMidd": 9706,
      "ĠMax": 9707,
      "Ġgod": 9708,
      "Ġä½İ": 9709,
      "Ġforg": 9710,
      "Ġdonder": 9711,
      "ĠTIM": 9712,
      "ĠAstrid": 9713,
      "ĠBla": 9714,
      "ĠBalt": 9715,
      "ĠBush": 9716,
      "ada": 9717,
      "æıī": 9718,
      "åĿİ": 9719,
      "Ġallen": 9720,
      "æį¡": 9721,
      "Ġspee": 9722,
      "lah": 9723,
      "ĠLasse": 9724,
      "Ġprior": 9725,
      "èĻ¹": 9726,
      "Ġkonink": 9727,
      "Ã©l": 9728,
      "ĠFleur": 9729,
      "pper": 9730,
      "Ġconcent": 9731,
      "è£¹": 9732,
      "rian": 9733,
      "Ġgenomen": 9734,
      "ĠStoebel": 9735,
      "Ġadm": 9736,
      "Ġduik": 9737,
      "Ġfactor": 9738,
      "Isn": 9739,
      "Ġlanden": 9740,
      "ç£Ĭ": 9741,
      "OEK": 9742,
      "Ġverlaten": 9743,
      "Ġå±Ģ": 9744,
      "ç¿Ķ": 9745,
      "Ġbrug": 9746,
      "Ġnamelijk": 9747,
      "Ġawhile": 9748,
      "ĠChrissy": 9749,
      "ington": 9750,
      "Ġweekends": 9751,
      "Ġoudste": 9752,
      "kwamen": 9753,
      "Ġclear": 9754,
      "Ġgooien": 9755,
      "Ġtelevisie": 9756,
      "Ġjunior": 9757,
      "Ġsuccess": 9758,
      "ĠDAGOBERT": 9759,
      "Luister": 9760,
      "ĠcafÃ©": 9761,
      "ĠFrench": 9762,
      "Ġreunion": 9763,
      "Ġgrappig": 9764,
      "Ġvieze": 9765,
      "ĠæĩĤ": 9766,
      "Ġextremely": 9767,
      "ĠOklah": 9768,
      "ĠLennart": 9769,
      "Be": 9770,
      "Boy": 9771,
      "UIT": 9772,
      "VE": 9773,
      "bad": 9774,
      "ror": 9775,
      "sk": 9776,
      "uper": 9777,
      "uiden": 9778,
      "æ©": 9779,
      "Ġéħį": 9780,
      "Ġç»Ī": 9781,
      "Ġtim": 9782,
      "Ġdun": 9783,
      "Ġduurt": 9784,
      "Ġsun": 9785,
      "ä¹Ļ": 9786,
      "Ġvracht": 9787,
      "Ġvele": 9788,
      "Ġlijn": 9789,
      "andaag": 9790,
      "Ġest": 9791,
      "Ġyester": 9792,
      "Ġinde": 9793,
      "Ġfly": 9794,
[...]
